#version: 0.2
e n
p o
t i
e s</w>
t h
o n
a n
i n
o n</w>
po s
o u
r e
th e</w>
& a
&a pos
e r
&apos ;</w>
d e</w>
q u
r o
i s
a r
en t</w>
l e</w>
i t
r e</w>
e m
o m
a ti
i s</w>
e r</w>
s i
e s
l a</w>
r a
o f</w>
l i
o r
e t</w>
t o</w>
a l
c on
e u
e n</w>
an d</w>
t a
i n</w>
l es</w>
s u
p ro
on s</w>
c e</w>
qu e</w>
e l
a t</w>
e d</w>
n e</w>
l &apos;</w>
om m
r i
t s</w>
a u
t e</w>
ati on</w>
r é
c i
d es</w>
p a
e c
a v
em ent</w>
i t</w>
in g</w>
ti on</w>
a c
i l
ou s</w>
d i
a l</w>
d &apos;</w>
a n</w>
po r
ro p
th at</w>
f o
p l
n o
s t
d é
a s</w>
c h
a m
e x
s e</w>
t u
i c
a i
e v
an t</w>
o p
p ar
si on</w>
po u
an s</w>
es t</w>
r es</w>
w h
n i
re s
t re</w>
m e</w>
a t
a g
c u
e t
l y</w>
d u</w>
C omm
u ne</w>
a b
fo r</w>
i m
f f
T h
m o
E u
m a
d u
u n</w>
en t
Eu rop
v e</w>
c omm
a d
o l
a s
t r
v i
in t
pou r</w>
n ous</w>
d ans</w>
si d
c om
u n
u s
Comm is
a p
m ent</w>
th is</w>
qu i</w>
on t</w>
i l</w>
eu r</w>
b e</w>
em b
a u</w>
en d
r s</w>
v er
w e</w>
ou l
f or
it é</w>
ar e</w>
c l
i r</w>
p r
u s</w>
en ts</w>
Commis sion</w>
por t</w>
b e
f i
por t
h av
g i
ti ons</w>
b u
oul d</w>
no t</w>
su r</w>
c o
s o
c ou
v o
t ra
hav e</w>
ati ons</w>
é s</w>
eu rop
europ é
s e
p u
e an</w>
pa s</w>
t es</w>
p ré
po li
c es</w>
it h</w>
d e
it y</w>
t é</w>
Europ ean</w>
l o
w ith</w>
ou r</w>
p er
ou t</w>
au x</w>
sid ent</w>
p e
ni on</w>
er s</w>
ra p
é g
th e
ti n
s h
ic h</w>
wh ich</w>
Th e</w>
qu &apos;</w>
en ce</w>
c er
U nion</w>
d o
P ar
d is
l ement</w>
pa r</w>
on n
d ev
g u
il l</w>
b y</w>
g r
g h
w ill</w>
l e
f a
s er
s ou
eu rs</w>
ac c
t o
t er
it s</w>
r u
an ce</w>
n e
er e</w>
el le</w>
é e</w>
s o</w>
k e</w>
re c
ai re</w>
en s</w>
d s</w>
pl us</w>
è re</w>
in s
b le</w>
par ti
j e</w>
é r
a r</w>
pro pos
s s
m es</w>
h as</w>
f in
t en
es s
t e
m e
poli ti
o b
o u</w>
al l</w>
m in
et te</w>
qu es</w>
t er</w>
g e</w>
im port
t ri
m an
w or
M r</w>
en ne</w>
ti ve</w>
m ar
P re
us t</w>
e ff
a te</w>
p ri
J e</w>
a y</w>
is e</w>
ati on
int er
ou r
t ed</w>
f u
Europ e</w>
th er</w>
2 0
C on
con s
è s</w>
m on
ou n
c ette</w>
tin g</w>
av e
europé enne</w>
b l
v en
é es</w>
so ci
y s</w>
e l</w>
is i
d em
qu es
qu o
ab le</w>
b i
p re
con om
n &apos;</w>
re l
c y</w>
cu l
du c
al so</w>
ti tu
o r</w>
ê tre</w>
w ould</w>
en ti
n ation
s ont</w>
or d
p ec
in e</w>
cou n
c r
c e
tr an
for m
s ta
&apos ;
is s
g o
il l
en ta
v es</w>
p res
i re</w>
g ra
&apos; s</w>
É ta
el op
Pre sident</w>
ol u
con cer
W e</w>
ou v
sh ould</w>
ave c</w>
M on
it e</w>
tu re</w>
eu x</w>
m i
m emb
po n
au t
on e</w>
N ous</w>
conom i
c h</w>
p li
m ust</w>
P ré
s &apos;</w>
é té</w>
em ents</w>
i tion</w>
li am
bu t</w>
u r
ro m</w>
j ec
b il
h u
f rom</w>
al ly</w>
s t</w>
in s</w>
si eur</w>
M emb
é n
Mon sieur</w>
S ta
20 0
t ec
g n
I l</w>
é ri
c a
p en
b li
pa ys</w>
ma is</w>
es s</w>
Par liam
l a
su p
tran s
re r</w>
di rec
an d
Parliam ent</w>
rap port</w>
i ti
be en</w>
al ement</w>
Par lement</w>
st ru
L a</w>
u e</w>
L e</w>
d er
m ents</w>
di ff
t h</w>
cl u
g ar
po in
import ant</w>
u l
s ec
é l
d ro
quo t
em p
o c
re port</w>
o y
t ou
Pré sident</w>
quot ;</w>
& quot;</w>
t out</w>
es e</w>
I t</w>
d ra
y ou</w>
cu r
ques tion</w>
Memb er</w>
h i
v ous</w>
it u
fin an
el les</w>
c an</w>
cer ta
mo re</w>
al is
ci p
pro c
Con se
s es</w>
ar y</w>
politi que</w>
o w
el y</w>
e ar
é ta
s y
Sta tes</w>
C oun
c ri
a m</w>
Conse il</w>
Coun ci
fa it</w>
Counci l</w>
k ing</w>
a le</w>
li ke</w>
memb res</w>
a f
a it</w>
pré s
w as</w>
r en
or s</w>
an ts</w>
gh t</w>
com p
c re
v e
Éta ts</w>
europé en</w>
pos si
m et
w e
i v
r on
f on
tra v
ati ve</w>
ver n
ver y</w>
pou r
e p
pu bli
av ons</w>
l ation</w>
ég alement</w>
per s
p eu
l u
olu tion</w>
è me</w>
ra l</w>
d g
the ir</w>
d o</w>
am end
ch an
a is</w>
a ins
comm e</w>
ad op
i r
t ro
Th is</w>
concer n
ap pro
nation al</w>
pro bl
res pon
al l
is t
c al</w>
s itu
m ê
ag e</w>
o se</w>
fo re</w>
au se</w>
an n
c ol
I n</w>
h a
or d</w>
gr ou
an is
am e</w>
in v
gra m
E U</w>
a ce</w>
o ther</w>
li b
ser v
sy st
c it
n ouv
f ic
e ar</w>
th ese</w>
th ere</w>
no w</w>
comm un
wor k</w>
ti l
ci al</w>
m il
qu i
ch e</w>
en tre</w>
ag re
au ss
in g
d am
a i</w>
d ing</w>
ai res</w>
tri es</w>
b ec
pr in
ev er</w>
ob jec
f aire</w>
poin t</w>
t ant</w>
auss i</w>
coun tries</w>
re d</w>
pro gram
r ou
r is
it és</w>
M .</w>
av o
su b
su l
isi on</w>
no tre</w>
situ ation</w>
ti me</w>
é conomi
stru c
si ons</w>
b et
f ac
el s</w>
bu dg
w i
g re
re ment</w>
s on</w>
mê me</w>
pro tec
the y</w>
do it</w>
is es</w>
j u
ar g
om e</w>
g h</w>
s i</w>
v is
co op
m ati
em pl
in es</w>
é c
par t</w>
L es</w>
res pec
d er</w>
an ti
t ous</w>
m es
st ra
ne ed</w>
ar d</w>
al es</w>
ab out</w>
rap port
prin cip
dé v
pro duc
s é
n a
u ni
tr ès</w>
is su
f er
re m
l eur</w>
o d</w>
elop p
en vi
in form
tri bu
pos ition</w>
le g
j ou
s pe
a ff
L &apos;</w>
m y</w>
i g
dév elopp
ar i
su r
mes u
fi r
ne w</w>
wh at</w>
gh ts</w>
op le</w>
en te</w>
ins titu
st ri
M ad
p e</w>
an de</w>
aut res</w>
p end
poli cy</w>
bi en</w>
is sion</w>
E n</w>
w el
b o
possi ble</w>
vo te</w>
dev ons</w>
i ent</w>
d on
è res</w>
con tin
dro its</w>
il s</w>
s el
v ou
g y</w>
te e</w>
en er
end re</w>
dev elop
é li
wh o</w>
on ly</w>
ap pli
C &apos;</w>
d ay</w>
objec ti
l on
m an</w>
pe ople</w>
j &apos;</w>
u x</w>
j us
at ed</w>
om b
r è
en g
con tre</w>
d ec
n u
b a
re fore</w>
acc ep
sup port</w>
or g
wi th
cr ati
ra it</w>
l em
ev e</w>
direc tive</w>
t ex
k s</w>
dé c
er ci
f s</w>
e ts</w>
fo is</w>
d ed</w>
es ti
t és</w>
f av
ti es</w>
no s</w>
vou dra
ti v
c &apos;</w>
su re</w>
bec ause</w>
ré gi
avo ir</w>
col l
v al
ta ke</w>
d om
u p</w>
1 9
voudra is</w>
e w</w>
ti c
ord er</w>
si on
rapport eur</w>
en ces</w>
r an
n o</w>
t -
r a</w>
de b
j et</w>
di c
com pl
ai d</w>
parti cul
C h
c an
j our
dis cu
mar ch
ai l</w>
éc ess
n écess
s olution</w>
ati n
al ité</w>
protec tion</w>
atin g</w>
c el
as t</w>
we en</w>
mar k
is h
f ra
h e
bet ween</w>
i f</w>
al s</w>
ac tion</w>
c ro
U E</w>
f un
acc ord</w>
conomi c</w>
a re
en n
parti cu
ow ever</w>
eff ec
i res</w>
J &apos;</w>
particu li
en cy</w>
man i
dé b
on al</w>
int en
it tee</w>
n omb
U n
as s
ac tu
in iti
propos ition</w>
ri ghts</w>
con tribu
développ ement</w>
c ré
i d
ex am
su ch</w>
enta l</w>
gi e</w>
soci al</w>
m s</w>
s p
a li
prés ent
ra is
ic es</w>
ma ke</w>
rè g
s -
g e
in to</w>
I n
the refore</w>
e u</w>
s eu
an y</w>
v er</w>
pl ace</w>
trav ail</w>
f au
int e
w ay</w>
re gar
be li
cit oy
re pr
ev er
mil li
bil ity</w>
gu e</w>
a in</w>
s omm
is ation</w>
pa c
vo ir</w>
b as
én é
don c</w>
f l
e y</w>
m at
ce la</w>
l ég
th ose</w>
Commis sion
publi c</w>
ag ri
d onn
en d</w>
in clu
m en
e conomic</w>
com e</w>
an c
o w</w>
con di
t emp
g ou
v ent</w>
si m
politi cal</w>
a ill
met tre</w>
comm ission</w>
o ff
ma j
in du
i ci
cur ité</w>
m u
or i
ven tion</w>
cons titu
org anis
tec h
d ont</w>
cur r
a d</w>
m é
on ne</w>
eff or
ti onn
hu i</w>
ati ves</w>
a ine</w>
pers onn
n on</w>
di re</w>
sé curité</w>
Commission er</w>
program me</w>
d eux</w>
an i
serv ices</w>
budg et</w>
ma de</w>
peu t</w>
t y</w>
c ad
co re</w>
pro m
re gi
re ad
an te</w>
por ts</w>
d es
ains i</w>
er ation</w>
m er</w>
beli eve</w>
s ome</w>
propos al</w>
gou vern
citoy ens</w>
jour d&apos;</w>
cou r
su is</w>
b les</w>
ar ds</w>
i tions</w>
g er</w>
so it</w>
con sid
em s</w>
Comm un
deb ate</w>
ô le</w>
s ans</w>
p le</w>
man y</w>
di es</w>
bil ité</w>
ains t</w>
th ing</w>
mesu res</w>
s emb
e m</w>
the m</w>
pe ti
c or
ess enti
mo st</w>
be ing</w>
dé mo
A l
ques tions</w>
c ar
ag ainst</w>
con clu
wh en</w>
is h</w>
der ni
cad re</w>
en core</w>
tr y</w>
iv ent</w>
march é</w>
li g
pen se</w>
ent ation</w>
w ere</w>
19 9
at ten
me a
s a</w>
th in
an k</w>
pre mi
t eurs</w>
ab il
l ev
el lement</w>
f re
mati ère</w>
inter national</w>
f in</w>
ér ation</w>
fir st</w>
ti z
ci tiz
issu e</w>
Th at</w>
M es
h omm
déb at</w>
u til
g ni
cl ear</w>
ta k
grou pe</w>
pro du
Comm ittee</w>
th an</w>
af in</w>
respec t</w>
l eurs</w>
o s
su s</w>
develop ment</w>
a y
politi ques</w>
au jourd&apos;</w>
è mes</w>
lo w
fu l
v re</w>
si gn
do ivent</w>
sou ti
chan g
mark et</w>
ac h</w>
nouv e
j o
ni ve
fau t</w>
c as</w>
inform ation</w>
t eur</w>
pro vi
d it</w>
c ent
économi que</w>
institu tions</w>
t w
in cre
s or
su res</w>
import ance</w>
h eu
temp s</w>
c et</w>
fu ture</w>
é qu
n ec
s ay</w>
si eurs</w>
re gu
pri or
C e</w>
ent repr
re at
is lation</w>
con f
pro v
ap p
A m
is te</w>
hu man</w>
un der
c ation</w>
pa ss
somm es</w>
ex t
u se</w>
Mad ame</w>
envi r
b er</w>
fac t</w>
semb le</w>
tu n
ear s</w>
isi ons</w>
c er</w>
it er
tu ral</w>
condi tions</w>
é v
i e</w>
d re</w>
ra ble</w>
finan ci
cl ai
h e</w>
thin k</w>
con tr
op e</w>
concer ne</w>
citiz ens</w>
pl u
mani ère</w>
ent ly</w>
fic ation</w>
dé j
ch o
j ust</w>
im pl
ta ble</w>
quo i</w>
t é
déj à</w>
ci fi
empl oy
c ar</w>
vi ew</w>
dro it</w>
mea sures</w>
es p
ver s</w>
ré pon
su ff
y ears</w>
W h
mo ins</w>
è rement</w>
o ù</w>
h el
ti ce</w>
read y</w>
ri ght</w>
li m
res s</w>
t ement</w>
cou ra
d ou
m on</w>
démo crati
n ég
coun try</w>
du re</w>
ta bl
it ed</w>
r y</w>
én er
pro b
o ci
s olu
0 0</w>
A s</w>
ser a</w>
agri cul
agre ement</w>
min is
r it
go vern
l ar
diff ér
l d</w>
discu s
r ing</w>
rem erci
tw o</w>
s an
ing s</w>
sh i
ta ge</w>
sou ha
in i
empl o
vi ol
h ere</w>
con tra
po pu
w ant</w>
et y</w>
ev en</w>
al ity</w>
nive au</w>
h ar
si dé
to day</w>
envir onn
lib er
t ly</w>
gar anti
a ys</w>
ten ir</w>
é ti
M rs</w>
dis pos
finan cial</w>
commun au
R e
chan ge</w>
can not</w>
s ame</w>
con na
do es</w>
dem and
ex emp
respon s
con sidé
o ver</w>
cri min
b on</w>
wel l</w>
eff ic
ha d</w>
cou rs</w>
ce p
probl ème</w>
au tre</w>
coll è
so li
nu m
is l
an ces</w>
v ue</w>
c c
ch er
s aid</w>
proc é
concern ant</w>
int ro
pré c
pro f
in stru
qu el
effor ts</w>
wh ere</w>
us si
g éné
coop eration</w>
lo b
y ear</w>
op por
certa in</w>
u es</w>
al ready</w>
ati s
S u
ou gh</w>
coop ération</w>
b onne</w>
ac hi
ag it</w>
l ors</w>
lo w</w>
dé f
sou r
personn es</w>
homm e</w>
pen s
re sul
respon si
tic le</w>
for m</w>
comm on</w>
s in
ab les</w>
in di
b es
gu es</w>
atten tion</w>
with in</w>
am éli
su iv
M me</w>
é m
pr endre</w>
or y</w>
enn es</w>
tak en</w>
iti es</w>
ver s
pro g
particul ar</w>
envi ron
au cu
ic ul
trav aill
v ed</w>
Commun ity</w>
op ini
th rou
c ould</w>
su m
ro le</w>
se in</w>
bes o
en sure</w>
res s
fu l</w>
to r</w>
ter n
aut or
ne e
si gni
ur ity</w>
jec t</w>
pl y</w>
T ur
indu stri
go od</w>
E n
eng ag
er a</w>
stra té
lev el</w>
th or
ow n</w>
cons équ
poin ts</w>
mu ch</w>
diff icul
r ation</w>
h al
H owever</w>
at t
m ement</w>
re as
p i
gr ation</w>
m ise</w>
h ope</w>
dom aine</w>
inte res
ti onal</w>
qu elle</w>
re us
nec ess
leg al</w>
jou rs</w>
til l</w>
ar ly</w>
tou tes</w>
Pre sid
ac h
europé ens</w>
D ans</w>
at eurs</w>
it er</w>
as pec
th en</w>
s till</w>
ren for
k now</w>
bo th</w>
qu er</w>
cl ar
to o</w>
ter ro
- 0
g ent
B u
ic i</w>
l ent</w>
al o
ré solution</w>
h é
ai ent</w>
pro mo
lon g</w>
c i</w>
y our</w>
syst ème</w>
ord in
tou te</w>
cour se</w>
se e</w>
ci es</w>
si ve</w>
struc tu
certa ins</w>
ba se</w>
par ce</w>
p h
cou p</w>
alis ation</w>
L is
Th ere</w>
R ussi
ener gy</w>
u m</w>
A f
are a</w>
terro ris
pr is</w>
h ow</w>
ta m
i ce</w>
syst em</w>
ex pres
gi v
wor ld</w>
eu x
pro ce
f em
iss ance</w>
mo y
av ant</w>
éta it</w>
reat y</w>
en ir</w>
diff er
a se</w>
u vre</w>
v ement</w>
contin u
e qu
li eu</w>
Éta t</w>
li gn
ic al</w>
y ing</w>
trans par
un der</w>
P ro
particuli er</w>
impl em
pl e
gent lem
pu is</w>
pou v
probl èmes</w>
ac tiv
ou se</w>
ai de</w>
v ic
h is</w>
ra c
or s
pour quoi</w>
duc tion</w>
ci d
emb l
tam ment</w>
par t
gentlem en</w>
en coura
w n</w>
oc cu
initi ative</w>
mon de</w>
nég oci
no m</w>
trans port</w>
per met
rel ations</w>
hal f</w>
g ener
proc ess</w>
p éri
pl an</w>
g ro
lu t
es sus</w>
an im
pré sid
proc essus</w>
no lo
alo gue</w>
wh y</w>
seu lement</w>
ca se</w>
parti cip
Q u
re ux</w>
A u
g lob
é ra
O n</w>
at er</w>
st and
ch a
ér ê
a k
int érê
al th</w>
rais on</w>
i a</w>
communau ta
pu t</w>
el ec
Pré sid
cons omm
amend ements</w>
A ss
necess ary</w>
sec teur</w>
go ti
ven ir</w>
sp é
soli d
20 1
pa i
entrepr ises</w>
finan c
inter nation
f e
re pres
exemp le</w>
ex pl
tech nolo
t ent</w>
dev rait</w>
regar d</w>
res olution</w>
s en
program mes</w>
ac tions</w>
oc ra
mo i</w>
commun ic
2 0</w>
s af
l ast</w>
tex te</w>
Commis s
j our</w>
Mad am</w>
au coup</w>
comm une</w>
ob lig
ne goti
le m</w>
opini on</w>
m ul
pré sident</w>
grou p
as su
prob lem</w>
num ber</w>
shi p</w>
om en</w>
maj or
re st
m om
n or
t al
stra te
t ation</w>
se con
au thor
e la</w>
tu r
él ec
com peti
ma in</w>
per i
di alogue</w>
qu el</w>
produc tion</w>
eu r
te fois</w>
l arg
fav eur</w>
Commiss aire</w>
for me</w>
règ lement</w>
tex t</w>
th ank</w>
A n
embl ée</w>
en semble</w>
e -
nomb re</w>
m is</w>
k ed</w>
P our</w>
r ôle</w>
propos itions</w>
comp te</w>
ser i
mon di
su jet</w>
inv ol
fon dam
issu es</w>
comm it
com b
an tes</w>
particul arly</w>
int ég
ac k</w>
d ly</w>
es sion</w>
ma inten
eu re</w>
c li
appro pri
is er</w>
ma in
om e
con struc
sec urity</w>
be aucoup</w>
es tabl
probl ems</w>
r ont</w>
com prom
no v
su cc
ér ence</w>
souti en</w>
N o
n ex
fo l
gr ande</w>
st e
ti ves</w>
in f
ré sul
dé pu
par l
T reaty</w>
san té</w>
qu ement</w>
h owever</w>
dem ande</w>
th re
C ela</w>
is sions</w>
pro p
exam ple</w>
é ment</w>
H ouse</w>
me ans</w>
av an
g es
gouvern ement</w>
comm iss
no tamment</w>
G rou
appli cation</w>
with out</w>
m al
hé sion</w>
contin ue</w>
re comm
sour ces</w>
objecti fs</w>
a st
la quelle</w>
i gn
ra ient</w>
re qui
me work</w>
throu gh</w>
beso in</w>
v oul
it es</w>
o g
dé clar
pri v
stri c
déc ision</w>
ré e</w>
do cu
C ette</w>
objecti f</w>
inv esti
amend ments</w>
wh e
pos e</w>
ri di
s avoir</w>
oun d</w>
tou jours</w>
s et</w>
parti e</w>
me di
t en</w>
ma y</w>
v ol
tra ité</w>
gi ve</w>
enta ire</w>
la dies</w>
m ental</w>
ur g
fem mes</w>
ave z</w>
Grou p</w>
vo tre</w>
s ome
la w</w>
ré g
ex cel
tr ouv
ou s
fon c
at es</w>
collè gues</w>
lo o
re présent
ann ée</w>
gre at</w>
r ons</w>
m enti
vi e</w>
or ation</w>
be half</w>
I f</w>
are as</w>
con tro
mom ent</w>
on -
Ass emblée</w>
k ey</w>
fav our</w>
nex t</w>
a in
environn ement</w>
w omen</w>
en e
is t</w>
ad minis
employ ment</w>
fu r
f t</w>
mesu re</w>
sou lign
be fore</w>
emplo i</w>
sel f</w>
ta c
hi gh
f am
re cher
oppor tun
iss ement</w>
S i</w>
th er
ci vi
sec tor</w>
adop ted</w>
ent ed</w>
t y
propos als</w>
M ais</w>
av enir</w>
ann ées</w>
ar m
ju ridi
ex i
o rer</w>
ent es</w>
an ds</w>
mat ter</w>
giv en</w>
d an
c eux</w>
Un ited</w>
amend ement</w>
ch ar
eff et</w>
e z</w>
c ap
w er</w>
F in
adminis tr
el l
cr is
ac coun
im mi
Memb ers</w>
so ient</w>
duc ation</w>
incre as
g m
nouv elle</w>
l ors
pac t</w>
nécess aire</w>
i tive</w>
résul ta
su ite</w>
ra le</w>
f éli
commiss aire</w>
r ès</w>
pouv ons</w>
for ce</w>
straté gie</w>
E l
c all
popu lation</w>
th ough</w>
dec ision</w>
p ê
ou t
agre e</w>
v ision</w>
ful ly</w>
dé fin
z -
nouve au</w>
mo di
s c
D E</w>
eux i
wh o
on g</w>
occu p
inter n
in t</w>
oc ca
respons abil
fra mework</w>
lar ge</w>
M in
tra de</w>
lo c
ci r
cris is</w>
int éri
au v
œ uvre</w>
enta ires</w>
ti mes</w>
it al</w>
fa r</w>
ag ain</w>
he alth</w>
dam es</w>
gu ar
pend ant</w>
gi es</w>
a ines</w>
ten u</w>
Mes sieurs</w>
jus tice</w>
milli ons</w>
ru les</w>
am bi
li c
bas is</w>
cr ise</w>
in de
fa ce</w>
ap rès</w>
v ing</w>
esp ère</w>
Présid ente</w>
ex pri
eur o</w>
co ordin
h on
ar ri
o f
n ing</w>
comm er
sin ce</w>
pl ac
produ its</w>
fur ther</w>
or ig
re co
f ai
im pli
ré alis
parti es</w>
Mes dames</w>
vo ted</w>
w ard</w>
w ards</w>
par ten
l s</w>
me ill
do m</w>
s atis
pou voir</w>
go ing</w>
w ays</w>
n er</w>
es t
s ol
ég ard</w>
peu vent</w>
nee ds</w>
s titu
remerci er</w>
im pact</w>
con fi
ri ons</w>
é ch
at ely</w>
soci ale</w>
fa ci
ear ly</w>
er i
prés ent</w>
leg islation</w>
cl os
fa ç
d ate</w>
ar ticle</w>
ti ens</w>
fi ci
val u
e d
ter ms</w>
it able</w>
in ed</w>
p rac
d one</w>
ser vi
effic ac
solid ar
200 0</w>
av is</w>
communic ation</w>
fi ed</w>
f our
hel p</w>
vi ent</w>
sub st
f ron
wel come</w>
ser ait</w>
dépu tés</w>
contr ôle</w>
I s
éner gie</w>
acc or
au gm
certa in
règ les</w>
k no
é t
A r
de puis</w>
a w
I ra
bet ter</w>
cro is</w>
E U
présid ence</w>
signi fic
o crati
d el
prog ress</w>
g es</w>
aspec ts</w>
il le</w>
pu is
fre e
régi ons</w>
premi ère</w>
e i
eu ro
princip e</w>
whe ther</w>
v ra
fol low
dé e</w>
tr u
pos itive</w>
w ish</w>
m &apos;</w>
pr ati
é vi
aff ec
s al
differ ent</w>
vo té</w>
dis crimin
o ver
ap port
ous ly</w>
garanti r</w>
recher che</w>
fi er</w>
é qui
mé di
particuli èrement</w>
fon ds</w>
pres ent</w>
v ari
ve ill
faç on</w>
b al
ap pe
europé ennes</w>
fer ence</w>
i c</w>
é tu
s û
pro jet</w>
ex ist
re qu
is ed</w>
A g
Wh at</w>
l ess</w>
res our
grou p</w>
f ish
n er
dam ental</w>
publi que</w>
nouve aux</w>
ear ch</w>
communauta ire</w>
ra l
ati f</w>
as k</w>
milli on</w>
s m
v a</w>
t ée</w>
F or</w>
guar an
ter min
lut te</w>
si de</w>
lég islation</w>
o de</w>
négoci ations</w>
s ed</w>
gro w
rap p
for ward</w>
l à</w>
M ar
G o
st ar
cri t</w>
g o</w>
ord re</w>
id enti
al y
secon d</w>
Sta te</w>
d re
regu l
mil it
m a</w>
ap pr
th ir
to wards</w>
regu lation</w>
in nov
at te
- ci</w>
ter rit
indi vi
ig n</w>
tro is</w>
dem ocrati
excel lent</w>
ma king</w>
wor king</w>
m is
g en
curr ent</w>
spe cifi
e w
con sul
in ing</w>
qu alité</w>
b ene
l ed</w>
concern ed</w>
iss ent</w>
du res</w>
im prov
al ors</w>
Presid ency</w>
quel ques</w>
d i</w>
Af ri
is ter</w>
as soci
ag es</w>
gi que</w>
éta ire</w>
accep table</w>
bas ed</w>
é rer</w>
du ire</w>
fl exi
c ra
por te</w>
i le</w>
inclu ding</w>
B ar
ever y
e g
pe u</w>
D e</w>
achi ev
us ed</w>
t s-
propos ed</w>
appro ach</w>
princip le</w>
u r</w>
s ci
establ ish
L i
ai rs</w>
consomm ateurs</w>
thre e</w>
n i</w>
d y</w>
pro ch
h ap
re f
c tion</w>
ter me</w>
f ew</w>
ist ance</w>
ma te</w>
indivi du
m er
clai rement</w>
effec tive</w>
resour ces</w>
ad di
ch il
S ch
c au
ab ord</w>
har mon
en f
re conna
t ors</w>
o li
ab solu
s éri
nouv elles</w>
strate gy</w>
P ar</w>
opportun ity</w>
et ary</w>
man ag
ser ont</w>
wor k
dem ocra
st ry</w>
ci ally</w>
procé dure</w>
pres sion</w>
ô t</w>
ge ther</w>
acc ord
af ter</w>
resul t</w>
t our
b éné
cul ture</w>
contribu tion</w>
author ities</w>
end a</w>
prés ente</w>
Con vention</w>
nécess ité</w>
pro t
hu man
e conom
sel ves</w>
pê che</w>
n am
organis ations</w>
adop tion</w>
pu r
re mar
poli cies</w>
st ren
agricul ture</w>
l it
su g
who le</w>
end s</w>
aill eurs</w>
ex clu
mo is</w>
c ru
é valu
specifi c</w>
stren g
incre ase</w>
sh all</w>
con v
N ations</w>
qu é</w>
ou ver
ad d
b an
st ron
Un is</w>
0 00</w>
provi de</w>
es pe
vis ant</w>
negoti ations</w>
m or
Bu t</w>
util is
Éta ts-
i de
sub ject</w>
dé pend
discus sion</w>
ol d</w>
autor ités</w>
espe cially</w>
économi ques</w>
ag rap
m it</w>
nomb reux</w>
avan tage</w>
is m</w>
gr and</w>
v ér
j ets</w>
T ou
to gether</w>
régi on</w>
expl o
e k</w>
instru ments</w>
pers pec
ti c</w>
l ine</w>
D i
l an
ges tion</w>
c ed</w>
a il
États- Unis</w>
du ring</w>
mainten ant</w>
accoun t</w>
an aly
in d</w>
lib re</w>
emb er</w>
memb re</w>
aucu n</w>
con curr
d ès</w>
d ent</w>
ta l</w>
di d</w>
larg ement</w>
ch ose</w>
l ab
emb re</w>
plu sieurs</w>
démocrati e</w>
s em
g et</w>
re li
instru ment</w>
sel on</w>
on ce</w>
ten ti
s s</w>
saf ety</w>
du e</w>
tu rel
viol ence</w>
con se
ec h
occa sion</w>
ch er</w>
économi e</w>
sta te</w>
s ens</w>
a ts</w>
gra tu
is me</w>
enta ux</w>
responsi bility</w>
glob al</w>
liber té</w>
in dre</w>
gener al</w>
ac t</w>
S e
l es
1 0</w>
soci été</w>
fun damental</w>
p tion</w>
produc ts</w>
s ous</w>
sou tenir</w>
res sources</w>
lon g
K o
solu tions</w>
re gre
par agrap
le ad
lu i</w>
import ante</w>
essenti al</w>
re ly</w>
cl early</w>
ti on
democra cy</w>
ti ers</w>
G re
au ra</w>
C es</w>
premi er</w>
implem entation</w>
él arg
répon se</w>
cor rec
environ mental</w>
con t
A ff
pr ises</w>
lég isl
democrati c</w>
ta king</w>
U ne</w>
cro issance</w>
ter m</w>
assu rer</w>
pa y
res earch</w>
appro che</w>
initi atives</w>
ca pa
juridi que</w>
op er
ali m
ex ig
seri ous</w>
é tran
gr ès</w>
ti que</w>
servi ce</w>
indu stry</w>
ti s
cha que</w>
ju di
ent er</w>
jus ti
gre ater</w>
u nion</w>
suff is
de fin
C O
a si
c all</w>
li f
sen si
pour rait</w>
Th ese</w>
aff aires</w>
n on-
reus es</w>
can di
d et
acc ess</w>
ac ti
es si
do wn</w>
po tenti
M o
st and</w>
N o</w>
enn ent</w>
immi gration</w>
ex iste</w>
r é</w>
en ing</w>
as es</w>
re ign</w>
us in
be g
intérê t</w>
regi ons</w>
free dom</w>
responsabil ité</w>
qu ant</w>
conséqu ent</w>
ta li
El le</w>
r ent</w>
r ati
Am end
t ers</w>
E N</w>
ti ques</w>
in st
améli orer</w>
it self</w>
acc ès</w>
reus ement</w>
gratu l
investi ss
pa g
certa ines</w>
ex tr
ti cal</w>
pri x</w>
e ting</w>
av ait</w>
in fra
ré f
m et</w>
some thing</w>
ever y</w>
qu ality</w>
cel u
t or
im pos
co û
ob serv
fin d</w>
enta le</w>
3 0</w>
co h
à -
ess es</w>
maj or</w>
h au
re ally</w>
fonc tionn
al esti
Th ey</w>
î tre</w>
con gratul
spé cifi
re al</w>
5 -0
intern al</w>
l in
sta tu
bec ome</w>
cit er</w>
c am
econom y</w>
T ra
rég lem
travaill eurs</w>
Is ra
voul ons</w>
é crit</w>
ta x
su s
vo y
co le</w>
thir d</w>
R i
ann u
fa is
col le
fi el
po l
bene f
ac cu
c ause</w>
inform ations</w>
F un
euro s</w>
it ement</w>
pr ès</w>
soci ety</w>
n es</w>
ré s</w>
internation ale</w>
ca pac
interes ts</w>
pro ve</w>
achi eve</w>
Comm e</w>
pro grès</w>
B el
cré ation</w>
Go vern
soulign er</w>
fre e</w>
con sum
tro p</w>
P er
r ant</w>
r ance</w>
ad hésion</w>
enf ants</w>
on ed</w>
o p</w>
j eu
actu ellement</w>
su sta
at ta
d avantage</w>
Eu ro
intéri eur</w>
b re
dom aines</w>
an other</w>
donn er</w>
concurr ence</w>
financ ement</w>
b usin
él é
sur tout</w>
min or
concern s</w>
R u
accor ds</w>
ex pli
è mement</w>
res te</w>
ci pa
le ast</w>
difficul t</w>
uni que</w>
colle ag
op pos
Lis bon</w>
A t</w>
discrimin ation</w>
ing le</w>
ra te</w>
5 0</w>
sci enti
Lis bonne</w>
aucu ne</w>
end ant</w>
abil ity</w>
wh ile</w>
h ist
util isation</w>
donn é</w>
200 1</w>
derni er</w>
a k</w>
con fir
iss ant</w>
ex er
coordin ation</w>
il y</w>
environ ment</w>
diff ici
Con stitu
gr an
qu els</w>
min im
conclu sion</w>
reas on</w>
objecti ves</w>
de f
b our
Aff airs</w>
commer ce</w>
ch all
comp ani
EU R</w>
particip ation</w>
kno w
re t
exam in
k e
qu ite</w>
h ear
vari ous</w>
R om
effic ace</w>
o ir</w>
pai x</w>
com pli
vol on
è te</w>
ad ap
grow th</w>
essenti el</w>
sup pl
s se</w>
bu il
de al</w>
d euxi
é tant</w>
1 2</w>
fun ds</w>
industri e</w>
l ing</w>
direc tion</w>
eff ici
struc ture</w>
qui e</w>
a is
ma ins</w>
na ture</w>
char ge</w>
aff ir
de ci
B al
al ways</w>
m ission</w>
construc tion</w>
st u
f y</w>
ex is
chang es</w>
regi on</w>
po s</w>
o s</w>
ent en
constitu e</w>
p auv
dre n</w>
proce dure</w>
ter mes</w>
for mes</w>
app elle</w>
i d</w>
ste p</w>
différ ents</w>
sm all</w>
iter ran
propos e</w>
donn ées</w>
min u
comm en
ta n</w>
1 5</w>
d at
comm ent</w>
extr ê
ass istance</w>
govern ment</w>
eu res</w>
consid er</w>
Govern ment</w>
mati que</w>
contro l</w>
sh or
docu ment</w>
- O
al low</w>
comm ittee</w>
m ess
ext rem
par liam
re form</w>
h and</w>
derni ère</w>
re fl
c s</w>
work ers</w>
fin al</w>
competi tion</w>
amend ment</w>
v eu
ent -
re stric
th s</w>
ta in</w>
ty pe</w>
fi x
agre ements</w>
ri r</w>
peu t-
souha ite</w>
vo ie</w>
form ation</w>
ex pec
g a
e red</w>
con cent
inv est
renfor cer</w>
com pris</w>
lors que</w>
e ach</w>
étran g
en h
loo k</w>
chil dren</w>
actu elle</w>
o th
fo od</w>
popu l
d ence</w>
v u</w>
it ation</w>
déc isions</w>
p rec
renfor c
tou tefois</w>
es t-
y et</w>
ou ve</w>
jus qu&apos;</w>
h er</w>
pré occup
an s
pr is
nécess aires</w>
er ing</w>
ou tre</w>
ra ther</w>
in qui
st ly</w>
discus sions</w>
A p
Tou tefois</w>
A u</w>
in dic
h as
résulta ts</w>
objec tive</w>
s si
él ev
comm erci
on es</w>
susta in
at eur</w>
major ity</w>
rap id
élarg issement</w>
qu elles</w>
o ire</w>
ful l</w>
stand ards</w>
re fer
ad v
sû r</w>
scienti fi
p s</w>
En fin</w>
invol ved</w>
form s</w>
s ingle</w>
trouv er</w>
wor ds</w>
to t
ex erci
o ds</w>
pro pos</w>
C o
dev raient</w>
F rance</w>
min d</w>
human it
z e</w>
pos iti
U n</w>
interes t</w>
pe ace</w>
sim pl
péri ode</w>
Russi e</w>
sor te</w>
nor mes</w>
F ir
rel ation</w>
des tin
du ce</w>
th ings</w>
conclu sions</w>
suiv re</w>
z- moi</w>
jus te</w>
rec ent</w>
l and
g éti
m ed</w>
compani es</w>
éner géti
é cu
structu res</w>
innov ation</w>
exerci ce</w>
leg isl
ch es</w>
mo d
ab oration</w>
b ri
fron ti
t ôt</w>
deuxi ème</w>
av i
In ter
ê te</w>
po wer</w>
ré c
b ro
fi ght</w>
ol o
cons ta
cré er</w>
le quel</w>
géné ral</w>
l er</w>
M al
inter vention</w>
group es</w>
aw are</w>
follow ing</w>
F on
Di rec
jo int</w>
jec ts</w>
dec isions</w>
tra di
regi onal</w>
major ité</w>
ré forme</w>
Tur key</w>
sou vent</w>
fiel d</w>
comprom is</w>
b ack</w>
agricul tural</w>
re g
intérê ts</w>
con text</w>
mon ey</w>
o ra
i x</w>
ég alité</w>
inf lu
for tun
ati fs</w>
av anc
tern al</w>
possi bilité</w>
m é</w>
mi eux</w>
Ar ticle</w>
mo der
accep t</w>
per mettre</w>
im prove</w>
march és</w>
coll ec
cons ci
bu r
Fin ally</w>
hi gh</w>
demand er</w>
Russi a</w>
alesti ni
ag enda</w>
ni que</w>
av e</w>
nomb reuses</w>
c le</w>
cli mate</w>
z one</w>
extrem ely</w>
Tur quie</w>
develop ing</w>
in a</w>
el er</w>
fi e</w>
b est</w>
group s</w>
f ran
ex cep
su mer</w>
hav ing</w>
200 6</w>
tu res</w>
form ul
con cep
nation aux</w>
199 9</w>
2 5</w>
ven tions</w>
av ail
pr ise</w>
im ent</w>
w ri
cre ate</w>
b ring</w>
C our
engag ement</w>
emp has
sim pli
dev rions</w>
prot ég
200 2</w>
concer n</w>
t om
s anc
wri ting</w>
dou b
A C
min ist
ag o</w>
pro jets</w>
déf en
titu de</w>
as ed</w>
com pa
ff ice</w>
ro w</w>
mon it
200 4</w>
Cour t</w>
concern ing</w>
E t</w>
moy ens</w>
menti oned</w>
mê mes</w>
activ ités</w>
ation al</w>
b er
sta bilité</w>
pre u
appropri ate</w>
remerci e</w>
ai r</w>
end ed</w>
f is
é tro
ab lement</w>
e th
li ties</w>
t elle</w>
sub si
chang ement</w>
lo cal</w>
heu reusement</w>
ch i
me eting</w>
h en
par lem
P ol
ri en</w>
béné fici
princip es</w>
Th e
démocrati que</w>
ext éri
Constitu tion</w>
S o</w>
simpl ement</w>
li er</w>
for ces</w>
con ci
p les</w>
resul ts</w>
mess age</w>
l and</w>
s ti
th em
of ten</w>
manag ement</w>
ex ten
enten du</w>
sta tes</w>
L et</w>
ch em
u ti
effec tiv
cru cial</w>
ai r
te z-moi</w>
é ten
comp éti
eu se</w>
dispos itions</w>
c at
s ession</w>
x im
cho ses</w>
ré es</w>
M E
pa ce</w>
responsi ble</w>
contr ô
environn em
j ob
con texte</w>
en largement</w>
qu ali
dé termin
î t</w>
en vis
peri od</w>
h o
h app
con ta
call ed</w>
intég ration</w>
préc é
fo cu
ch e
al low
di vers
financi ère</w>
1 1</w>
ac tive</w>
k ra
appr ouv
peut- être</w>
certain ly</w>
B i
fi gu
di men
200 3</w>
ta s
conse qu
lif e</w>
ti tre</w>
e ducation</w>
tur n</w>
curr ently</w>
ent ary</w>
au té</w>
c in
discu ss
es time</w>
com es</w>
c al
congratul ate</w>
job s</w>
princip les</w>
com ing</w>
dat a</w>
li ght</w>
200 9</w>
t els</w>
effor t</w>
comprom ise</w>
ent ra
ris k</w>
ab o
dem ment</w>
inten tion</w>
S tra
extrê mement</w>
celu i</w>
c ite</w>
po n</w>
ti rer</w>
- même</w>
t ées</w>
re té</w>
reli gi
organis ation</w>
éta bli
du rable</w>
avail able</w>
co s
éta bl
c ô
gu eur</w>
emplo is</w>
syst ems</w>
t ons</w>
d ge</w>
ven ess</w>
ag ir</w>
a ise</w>
promo tion</w>
a jou
ca le</w>
C our</w>
200 5</w>
rais ons</w>
fondam entaux</w>
P or
sim ply</w>
quel que</w>
n et
conf lic
200 7</w>
efficac ité</w>
v isi
intro duction</w>
clai r</w>
ambi ti
er re</w>
O r
op en</w>
déclar ation</w>
répon dre</w>
star t</w>
si x</w>
régi on
aspec t</w>
lib éra
cr it
G er
V ous</w>
ti l</w>
heu re</w>
el ess</w>
d en</w>
su per
au rait</w>
us s
Y ou</w>
consum ers</w>
ex per
tran si
candi d
so v
p u</w>
ari at</w>
Fon ds</w>
D ec
mondi ale</w>
di ver
féli citer</w>
res t</w>
con st
D em
Se con
adop té</w>
eri es</w>
re -
mon ths</w>
ins ta
know le
Ri ghts</w>
ce pendant</w>
l ack</w>
h ab
D &apos;</w>
syst èmes</w>
in dépend
rel ative</w>
M a
vi ous</w>
nation ales</w>
ch ers</w>
diffici le</w>
transpar ence</w>
Ko sov
dra ft</w>
memb ers</w>
th an
ti veness</w>
sustain able</w>
ré duire</w>
solidar ité</w>
reco gn
recomm and
i dée</w>
ex peri
prop re</w>
legisl ative</w>
regar ds</w>
under stand</w>
commit ment</w>
budg étaire</w>
fortun ately</w>
adop ter</w>
gr é</w>
uni es</w>
f el
p er</w>
Amend ment</w>
pol lu
con n
no te</w>
vi ties</w>
c elle</w>
S er
he sion</w>
hap s</w>
co hésion</w>
re ach
201 0</w>
derni ères</w>
prior ity</w>
ré jou
ta ux</w>
ch arg
ni ques</w>
promo te</w>
signific ant</w>
oth ers</w>
g s</w>
vra iment</w>
as te</w>
ré alité</w>
inde ed</w>
â ce</w>
nee ded</w>
import ants</w>
dem ain</w>
rapid ement</w>
rapport eurs</w>
ai m</w>
évalu ation</w>
ac ro
U kra
seu le</w>
s pec
pre par
200 8</w>
re duc
T o</w>
technolo gies</w>
car ri
or row</w>
Ap pl
oppor tu
Por tu
C ep
Cep endant</w>
compl e
civi l</w>
ent ales</w>
te l</w>
t el
j am
dem on
t le</w>
acti vities</w>
menti onn
f arm
mat ters</w>
is se</w>
rap ports</w>
mo ve</w>
l et</w>
re ports</w>
n é
conséqu ences</w>
es se</w>
c ases</w>
fun ding</w>
Kosov o</w>
reas ons</w>
d en
th ou
pro jects</w>
es ter
- t-
dis tribu
r endre</w>
Pre mi
po int
on i
ab ly</w>
é gi
po w
Direc tive</w>
énergéti que</w>
suppl ém
dé pen
ab s
pu l
Commun auté</w>
regre t
meill eure</w>
inde pend
ab or
regar ding</w>
inte gration</w>
h ol
cl é
repres ent
li ation</w>
somm et</w>
f ont</w>
ever al</w>
aut ant</w>
preu ve</w>
ser ve</w>
cons en
différ entes</w>
r ê
re v
k es</w>
lig ne</w>
com pr
actu ally</w>
con vient</w>
cl ari
pl ay</w>
con form
in ement</w>
gouvern ements</w>
er ic
ar gu
al tern
fronti ères</w>
jam ais</w>
de ta
cr iter
docu ments</w>
f avo
cap it
mark ets</w>
ré se
volon té</w>
pré par
T out</w>
them selves</w>
do ing</w>
sim ple</w>
solidar ity</w>
è ne</w>
L e
accep ter</w>
év iter</w>
guaran tee</w>
M er
ju st
tom orrow</w>
terroris me</w>
mo tion</w>
ex ac
t arg
i de</w>
Am eric
encoura g
q u</w>
ac qu
S ec
ne i
moy en</w>
stron g</w>
ru ral</w>
ai der</w>
conv ain
appli c
p eux</w>
achiev ed</w>
ass ess
dimen sion</w>
W ith</w>
ba si
mon tr
ay ing</w>
sanc tions</w>
nu clé
p ing</w>
end ra</w>
ou voir</w>
on s-
mi ght</w>
souha it
am ong</w>
b an</w>
cos ts</w>
bu re
plu tôt</w>
ec i</w>
M y</w>
Ch ar
é ducation</w>
ob jet</w>
at er
op position</w>
collè gue</w>
s avons</w>
p es</w>
parl er</w>
Th ank</w>
an moins</w>
sup port
tr ue</w>
it em</w>
ris que</w>
dic tion</w>
mu tu
or ing</w>
élec tions</w>
cul tural</w>
qu ent</w>
prom ouvoir</w>
arg ent</w>
dé ta
p ati
govern ments</w>
am oun
ap par
agre ed</w>
Presid ent-
oblig ations</w>
lon ger</w>
u re</w>
s oul
procé dures</w>
dra w</w>
acc ession</w>
-O ffice</w>
confi ance</w>
provi ded</w>
dou te</w>
terroris m</w>
m en</w>
in -Office</w>
judi ci
g é
fic ations</w>
tech n
t elles</w>
rel atives</w>
l ande</w>
s et
k ind</w>
en ting</w>
structu rel
vi gueur</w>
do is</w>
transpar ency</w>
de al
clos ed</w>
m éc
val eurs</w>
to o
to tal</w>
bi o
gi c</w>
consen sus</w>
ac t
re présente</w>
l ec
b order</w>
C E</w>
crit ères</w>
ta x</w>
ani a</w>
é vo
pass é</w>
ré duction</w>
ner ship</w>
fa il
y oun
jeu nes</w>
ex c
I ls</w>
éta ient</w>
cri me</w>
en ough</w>
to ire</w>
j et
rel ev
financi ères</w>
fra u
z ed</w>
pri t</w>
E C
O ur</w>
minis tre</w>
puis se</w>
résulta t</w>
qu and</w>
fe el</w>
comm un</w>
ti m
suff ici
ide a</w>
agri cole</w>
régi me</w>
ple ased</w>
perspec tive</w>
tiv ité</w>
es prit</w>
ti ent</w>
pl ans</w>
s everal</w>
President- in-Office</w>
méc anis
s k
se p
se e
er ont</w>
individu al</w>
l anc
Ukra ine</w>
envis ag
bal ance</w>
h ic
le ad</w>
lab our</w>
n ers</w>
The refore</w>
spe cial</w>
direc tives</w>
direc t</w>
veill er</w>
pre vent</w>
dev ant</w>
t es
tr a</w>
re ven
val ues</w>
po ver
V o
nu clear</w>
consid er
ob sta
f ru
fo reign</w>
respon se</w>
car act
vo ting</w>
l au
guaran te
recomm end
con nec
prov isions</w>
re main</w>
apport er</w>
ti f</w>
è le</w>
t ent
tabl ed</w>
e p</w>
t re
det er
per man
co hesion</w>
ra les</w>
ou rs</w>
augm entation</w>
fai r</w>
memb er</w>
i li
vér itable</w>
c en
st er
s ex
H e
inclu de</w>
er ait</w>
ta g
m i</w>
tionn el</w>
st oc
ech anis
ti fs</w>
lors qu&apos;</w>
y -
P e
t on</w>
emp ê
dé s
me -
c ally</w>
na turel
addi tion</w>
int é
cul ation</w>
pauv reté</w>
cl ose</w>
m it
mani f
é ni
conf ron
mul ti
protég er</w>
me th
expri mer</w>
pa st</w>
An d</w>
gr âce</w>
cre ation</w>
benef it</w>
on g
k age</w>
cap ital</w>
éri ca
con sumer</w>
signi fie</w>
import antes</w>
ic k
vic times</w>
colleag ues</w>
dé pos
youn g</w>
sta bility</w>
prop res</w>
N or
gr ants</w>
s ing</w>
atte indre</w>
Secon dly</w>
criter ia</w>
S o
part i</w>
is ing</w>
Ch ina</w>
re ç
pro ject</w>
un anim
exis ting</w>
a dé
rapp eler</w>
V er
I tali
techn ical</w>
ré gu
prior ités</w>
ec h</w>
expres s</w>
effec t</w>
hel d</w>
v ital</w>
em ment</w>
S ou
pr ê
si mil
pover ty</w>
h y
four ni
anc ed</w>
elec tions</w>
administr ation</w>
pro por
encoura ge</w>
prior ité</w>
capac ité</w>
ex péri
sou ten
sh are</w>
ap ply</w>
abo ve</w>
mé th
ob tenir</w>
onn es</w>
al though</w>
élé ments</w>
m echanis
s it
invest ment</w>
con serv
W or
Bi en</w>
w ar
défen se</w>
re fu
spe ci
vi ew
res ol
préc is
L a
ra bles</w>
G u
at titude</w>
proce dures</w>
u pon</w>
iss ons</w>
communauta ires</w>
F o
ans wer</w>
off ici
li gh
conci liation</w>
C om
Ch ine</w>
paragrap he</w>
n av
Min ister</w>
financi ers</w>
streng th
P L</w>
seu l</w>
ré ellement</w>
refl ec
L u
m al</w>
b r
deter min
réf érence</w>
rel ating</w>
chall eng
adop t</w>
ar rê
il les</w>
J us
ou rable</w>
T O</w>
par venir</w>
an ci
con tac
men tion</w>
e ful</w>
sy m
mar iti
pre sid
re ments</w>
itu re</w>
pa role</w>
pers onne</w>
spe ak</w>
au x
améli oration</w>
B er
an y
20 20</w>
t ations</w>
harmon isation</w>
D es</w>
vo ter</w>
B ul
jour n
v ely</w>
D ev
c les</w>
personn el</w>
pres ented</w>
Dem ocra
certain ement</w>
ac cid
m ean</w>
financi er</w>
compl et
I T</w>
uni quement</w>
1 3</w>
i rs</w>
vic ti
subsi di
ma kes</w>
di e</w>
w s</w>
institu tion</w>
influ ence</w>
rap hi
se en</w>
P P
mon t
4 0</w>
protec t</w>
respec ter</w>
tr ouve</w>
con cre
publi cs</w>
comp éten
no thing</w>
increas ing</w>
cli matique</w>
évi demment</w>
ré union</w>
do ssi
hi m</w>
sign ed</w>
l et
orig ine</w>
re duce</w>
pa y</w>
so on</w>
M ed
e iv
ra di
com pens
aut om
pag ne</w>
ni ties</w>
in dis
ro ad</w>
ca ta
adé qu
at ory</w>
trans ports</w>
ré formes</w>
consequ ences</w>
qu a
c a</w>
equ al</w>
per haps</w>
institu tional</w>
poli ce</w>
prior ities</w>
peti tes</w>
gran des</w>
expres sion</w>
H u
C er
parten aires</w>
prin cipa
ma xim
coû ts</w>
minim um</w>
por ting</w>
al u
B an
se z</w>
d am</w>
ré sou
ple inement</w>
gu erre</w>
consul tation</w>
homm es</w>
as sur
soci aux</w>
ari an</w>
Bul gar
ons- nous</w>
b lement</w>
éta t</w>
all er</w>
E x
cent rale</w>
prati que</w>
c é</w>
c are</w>
en du
st rop
ex écu
b ru
fish ing</w>
fav or
stand ing</w>
sta tement</w>
R é
mal a
comp et
dé es</w>
as ked</w>
prac tice</w>
soci ales</w>
requ est</w>
lit tle</w>
cata strop
gi ques</w>
rec eiv
Ira n</w>
milit ary</w>
z ones</w>
el op</w>
dev elop</w>
parten ariat</w>
en fin</w>
an u
bo dy</w>
proch aine</w>
se ems</w>
succ ess</w>
fam ili
concep t</w>
util iser</w>
D euxi
de pend
dé but</w>
basi c</w>
increas ed</w>
exist ence</w>
du it</w>
oblig ation</w>
vi ously</w>
féli cite</w>
carri ed</w>
d -
subst anti
prati ques</w>
ent er
regul ations</w>
com par
demand é</w>
ta ges</w>
st atis
entra î
ch ance</w>
spé ci
tra ining</w>
ô m
propos é</w>
alim entaire</w>
val ue</w>
Bar ro
2 7</w>
T o
continu er</w>
D e
p an
n ess</w>
présent é</w>
proc è
1 8</w>
org an
présent er</w>
coll aboration</w>
ru le</w>
dé cid
orig in
vo is
é change</w>
t res</w>
con ver
contra ire</w>
I I</w>
ent ations</w>
P oli
ing ly</w>
demon stra
considé ration</w>
D é
ou bli
adv an
t i</w>
wor ks</w>
u m
urg ent</w>
géné rale</w>
essi onn
sec teurs</w>
travaill er</w>
P alestini
a z
ver b
abs ence</w>
er re
co les</w>
re pe
form er</w>
ord ers</w>
int es</w>
condi tion</w>
lo v
rais ed</w>
alis t</w>
uni vers
t ely</w>
requi rements</w>
ex ternal</w>
pos er</w>
th us</w>
f our</w>
every one</w>
ch ôm
eu ses</w>
our selves</w>
busin ess</w>
1 4</w>
ress er</w>
sé ance</w>
con dam
U N</w>
pré ci
s ement</w>
Dev elop
développ er</w>
de si
tra itement</w>
tra ff
y p
challeng es</w>
subst ances</w>
succ ess
dis ast
sh ow
farm ers</w>
me et</w>
budg etary</w>
ac compl
is tes</w>
t an
ther more</w>
at ors</w>
Bal k
us ing</w>
perspec tives</w>
gh out</w>
rit an
I r
establ ish</w>
opportu nities</w>
to b
peu ple</w>
lec ture</w>
commun ity</w>
urg ence</w>
subsidi ar
ex port
w ar</w>
veu t</w>
satis fac
t â
bil li
c y
Sch eng
tot alement</w>
Fun d</w>
un til</w>
gu id
sta ge</w>
add ress</w>
Al l</w>
g al</w>
ish ed</w>
O ne</w>
Scheng en</w>
administr ative</w>
of f</w>
we ek</w>
résou dre</w>
dépen ses</w>
read ing</w>
four n
vo tes</w>
expres sed</w>
comb at</w>
C ro
relev ant</w>
souha iter
im medi
e f</w>
li t</w>
prof essionn
hap pen
v is</w>
spécifi ques</w>
sour ce</w>
nam ely</w>
s au
indis pens
pa red</w>
p én
en able</w>
hist ori
No tre</w>
ad equ
bi lities</w>
sur veill
g ence</w>
ém issions</w>
ru ption</w>
end ing</w>
a éri
i es</w>
heu res</w>
pos itions</w>
con cr
dé pl
sh ow</w>
bure au
compéti tivité</w>
er ous</w>
pro per
dé lég
conflic t</w>
absolu ment</w>
s port</w>
dis tin
intro duc
cin q</w>
situ ations</w>
con ven
mondi al</w>
ei ther</w>
man que</w>
sem aine</w>
part ners</w>
man d
tak es</w>
lan gu
ex tra
Par ty</w>
O N
sur ing</w>
Develop ment</w>
O b
am érica
mo vement</w>
er ons</w>
Am ster
qua tre</w>
c elles</w>
D u
b el
renforc ement</w>
o -
deci ded</w>
throu ghout</w>
fish eries</w>
Amster dam</w>
capa ble</w>
vra i</w>
potenti al</w>
appli quer</w>
qu ick
monit oring</w>
communau té</w>
commen cer</w>
investiss ements</w>
pac kage</w>
m ér
l ines</w>
beso ins</w>
étu de</w>
knowle dge</w>
impl ement</w>
requi red</w>
Portu gal</w>
exig ences</w>
verb al</w>
l anti
reach ed</w>
hu ma
i -même</w>
f f</w>
pow ers</w>
di pl
con vention</w>
E -
re view</w>
spe ak
jo b</w>
ai mer
difficul tés</w>
è ve</w>
ater al</w>
lo in</w>
ap pu
Or g
i ons</w>
civi le</w>
Dec ember</w>
éta ires</w>
effec tu
am ment</w>
pre pared</w>
s aying</w>
déf is</w>
pour suivre</w>
b ritan
d ri
con duc
déc embre</w>
sen se</w>
e au</w>
budg ets</w>
améli or
pur su
produ it</w>
libéra l
l égi
acc ro
implem ented</w>
établi r</w>
territ ori
im possible</w>
Afri que</w>
év én
support ed</w>
mon tre</w>
em er
esti m
pre vious</w>
establish ed</w>
ai des</w>
dec isi
c k</w>
procè s-
vo s</w>
jou er</w>
at temp
f lo
F ur
dem and</w>
. .
contribu er</w>
parlem entaire</w>
every thing</w>
val eur</w>
précis ément</w>
focu s</w>
il legal</w>
i que</w>
conf érence</w>
statu t</w>
lut ter</w>
cir culation</w>
ro g
pro cha
fi é</w>
d its</w>
faci l
t ory</w>
par mi</w>
il à</w>
ever th
victi ms</w>
everth eless</w>
équi libre</w>
succ ès</w>
par tage</w>
permet tant</w>
1 4
pl an
réglem entation</w>
gr ands</w>
mon étaire</w>
appro ved</w>
n ever</w>
mariti me</w>
w ater</w>
in ce</w>
B ri
1 6</w>
ré p
pa sse</w>
Deuxi èmement</w>
encoura ger</w>
souti ens</w>
re forms</w>
b ly</w>
P l
pro to
actu el</w>
procès- verbal</w>
F ren
en ed</w>
1 0
aimer ais</w>
Con ference</w>
ris ques</w>
im médi
n ations</w>
g ens</w>
d y
an tly</w>
E C</w>
re z</w>
lev els</w>
Wh en</w>
op ér
tas k</w>
ri er</w>
P T</w>
vo it</w>
than ks</w>
compéten ces</w>
tro isi
respon d</w>
construc tive</w>
el ines</w>
c ent</w>
Af gh
1 7</w>
re jet
o d
tra it</w>
par ven
f é
at tre</w>
streng then</w>
uti le</w>
ré vision</w>
dé ci
d iterran
comp ét
U S</w>
n ed</w>
quick ly</w>
fi ve</w>
eff ets</w>
cu m
rel and</w>
Fren ch</w>
v ise</w>
esp ér
billi on</w>
re duction</w>
I reland</w>
gen u
b ac
trav aux</w>
er ai</w>
effec ts</w>
A 5-0
at éra
sec tors</w>
les quels</w>
for t</w>
em issions</w>
f ri
ste ad</w>
fel low</w>
consid ère</w>
Re gu
cons ac
C or
de l</w>
dan g
sug ges
ren ouv
permet tra</w>
di ri
analy s
point ed</w>
Mer ci</w>
b orders</w>
Afri ca</w>
contra c
ch ac
Med iterran
suffici ent</w>
qu anti
à- dire</w>
nei gh
pres sure</w>
Mediterran ean</w>
A gre
competi tiveness</w>
tal king</w>
cl as
priv ate</w>
c k
Bel ar
tra vers</w>
sit ting</w>
én or
pu issent</w>
anim aux</w>
es pace</w>
s po
cl os</w>
Re public</w>
del eg
rou ght</w>
est- à-dire</w>
dé la
surveill ance</w>
E ast</w>
ta s</w>
Barro so</w>
inclu ded</w>
st ress</w>
o re</w>
at h</w>
le ar
t end
ren ew
réjou is</w>
en qu
séri e</w>
B e
minist res</w>
ay ant</w>
sor t</w>
bil isation</w>
en cies</w>
z- vous</w>
tis h</w>
ag ue</w>
gra ve</w>
rec ently</w>
Jus tice</w>
nation ale</w>
c ité</w>
financ ing</w>
faci lit
cri tic
bi en
im porte</w>
sex u
O M
P ri
inte gra
on d</w>
associ ation</w>
ar ound</w>
er ship</w>
too k</w>
cent ral</w>
4 -0
Inter national</w>
op eration</w>
long -
vi a</w>
Fir stly</w>
re over</w>
fran ç
commer cial</w>
explo itation</w>
pass er</w>
Balk ans</w>
tu re
receiv ed</w>
S E</w>
g ag
chôm age</w>
struc tural</w>
absolu tely</w>
pour raient</w>
u tes</w>
dis s
lo g
représent ants</w>
in cid
constitu ent</w>
t reat
conform ément</w>
év olution</w>
th y</w>
ran g
att end
8 0</w>
Ir lande</w>
o l</w>
infra structure</w>
soci alis
él ément</w>
C op
re ality</w>
mod èle</w>
inté ress
fonctionn ement</w>
annu al</w>
a king</w>
pro fon
on d
prog res
ke ep</w>
represent atives</w>
re ach</w>
st ep
at tac
bil ités</w>
ol og
we e
examin er</w>
w aste</w>
sh e</w>
compl ex
s a
pollu tion</w>
ca re
dipl om
candid ats</w>
AC P</w>
ress ed</w>
cro ss
mit ted</w>
Fur thermore</w>
gouvern em
en suring</w>
lo i</w>
respons ables</w>
Min utes</w>
.. .</w>
é ven
cul turel
y er</w>
suiv i</w>
chang ements</w>
Ré publique</w>
ai med</w>
tou ch
- à-
déclar é</w>
mal heureusement</w>
anis ation</w>
F ra
Per met
é tés</w>
S we
im p
mul til
& #
&# 9
tra in</w>
tra ite</w>
P o
wh ose</w>
pre hen
exper ts</w>
aff aire</w>
anis h</w>
ir a</w>
as y
cre ating</w>
assess ment</w>
parliam entary</w>
contribu te</w>
busin esses</w>
it -
t ol
Democra ts</w>
B r
w an
P our
respons able</w>
su c
pour ra</w>
c entre</w>
mand at</w>
décid é</w>
analy se</w>
doub t</w>
viol ations</w>
-à- vis</w>
acro ss</w>
conclu re</w>
t em
amoun t</w>
Permet tez-moi</w>
éri que</w>
e ce</w>
vis -à-vis</w>
bour g</w>
qu ée</w>
cho ix</w>
é ens</w>
experi ence</w>
mani e</w>
el on</w>
possi bility</w>
obsta cles</w>
addi tional</w>
f er</w>
fi ée</w>
No s</w>
Cop enh
manif es
liber tés</w>
equ ality</w>
tic s</w>
li és</w>
al ités</w>
pri ces</w>
effici ency</w>
contin ent</w>
re jec
pri ce</w>
Tra ité</w>
plu part</w>
v ul
internation ales</w>
treat ment</w>
fu tu
beg in</w>
pens ons</w>
J une</w>
In tern
engag ements</w>
inv ite</w>
ti r</w>
comm uni
quo tas</w>
tal k</w>
na tural</w>
milli ards</w>
h is
di g
j an
guid elines</w>
cons ist
v al</w>
presid ency</w>
ê tes</w>
co st</w>
as sez</w>
dis par
derni ers</w>
discuss ed</w>
R es
ri gh
appli ed</w>
ev alu
mo del</w>
agricul teurs</w>
pe ine</w>
e li
cô té</w>
pa qu
sou ff
ref us
develop ed</w>
Intern et</w>
un acceptable</w>
Bu dg
p ha
199 8</w>
part nership</w>
fin ally</w>
ju in</w>
ér é</w>
tel l</w>
souhaiter ais</w>
troisi ème</w>
Agre ement</w>
humanit arian</w>
dis e
R oy
A si
6 0</w>
étu des</w>
is tan</w>
fron tali
Bri tish</w>
exer c
reco gni
sou s-
fourni r</w>
complet ely</w>
responsabil ités</w>
en suite</w>
d û</w>
a red</w>
po ni
per met</w>
tac k
b rought</w>
conf lit</w>
ar mes</w>
réc emment</w>
ë l</w>
un employment</w>
se ign
in ning</w>
men er</w>
improv ing</w>
c ations</w>
onn ement</w>
adop tée</w>
S oci
re mains</w>
pha se</w>
C ent
out side</w>
capac ity</w>
possi bilités</w>
app el
technolo gy</w>
dis poni
ati c</w>
shor t</w>
dan ger</w>
ch am
st r
h an
dossi er</w>
tech niques</w>
nuclé aire</w>
confi dence</w>
les quelles</w>
li ance</w>
per mis</w>
lo t</w>
équi lib
s ais</w>
dy nam
K y
B ank</w>
discus s</w>
structurel s</w>
giv ing</w>
h or
hab it
sum mit</w>
ne g
rap ide</w>
anti -
s l
accu e
démo cra
sign al</w>
long temps</w>
-t- il</w>
li ving</w>
off er</w>
in te</w>
con dem
ar s</w>
enter prises</w>
Regu lation</w>
2 1</w>
ré fu
201 3</w>
Org anisation</w>
Belar us</w>
Fir st</w>
li ve</w>
M ay</w>
com prendre</w>
direc tement</w>
l ist</w>
cir cum
ra is</w>
f as
fic ally</w>
d ays</w>
h er
convain c
asi le</w>
i an</w>
com prehen
l iste</w>
G ener
comp ati
he ad</w>
constitu tion</w>
con tent</w>
m ises</w>
hon ourable</w>
dic ta
di gn
f ound</w>
effectiv ely</w>
E conomic</w>
ab order</w>
in ation</w>
r end
direc tly</w>
E S</w>
cour t</w>
o ires</w>
accord ance</w>
indispens able</w>
for c
dé ch
affec ted</w>
sc ope</w>
ev ents</w>
rel atif</w>
C u
chac un</w>
strate gic</w>
R ou
1 9</w>
prac tical</w>
hear d</w>
consid ered</w>
dev oir</w>
cor ruption</w>
publi ques</w>
produc teurs</w>
is ely</w>
qu ées</w>
fa its</w>
Poli cy</w>
it aire</w>
Présid ence</w>
comm ents</w>
is ts</w>
Cent ral</w>
all ons</w>
al most</w>
comp tes</w>
ouver ture</w>
endu m</w>
investiss ement</w>
anis tan</w>
Afgh anistan</w>
nive aux</w>
entrepr ise</w>
V i
Europ e
paqu et</w>
provi des</w>
saf e
fais ant</w>
at est</w>
lu m</w>
ab and
A L
pré vention</w>
rel ated</w>
So cial</w>
ess ay
Roy au
ther n</w>
pl ay
puis que</w>
altern ative</w>
moder n
juridi ques</w>
supplém entaires</w>
x emb
t ements</w>
medi um
at ri
al ise</w>
ra i</w>
déc isi
O f</w>
olu tions</w>
o h
avo id</w>
activ ité</w>
Vo ilà</w>
go ods</w>
al ong</w>
v ont</w>
ar b
pen sion</w>
au diss
f érence</w>
commit ted</w>
Ira q</w>
exclu sion</w>
ré v
cl aire</w>
favo rable</w>
F e
en ge</w>
qu és</w>
xemb our
ad d</w>
ester day</w>
ba ts</w>
si è
re ti
def ence</w>
P u
m auv
Wor ld</w>
promo ting</w>
bec om
T ran
s av
h old</w>
m y
ci v
chall enge</w>
divers ité</w>
mont rer</w>
s avez</w>
u p
regi me</w>
positi f</w>
for te</w>
sor mais</w>
la iss
ga z</w>
soulign é</w>
rec ei
h om
implem enting</w>
f ar
O c
mainten ir</w>
popul ations</w>
étrang ères</w>
audiss ements</w>
s bourg</w>
adequ ate</w>
si g
le -ci</w>
Hu man</w>
connec tion</w>
g én
ext ent</w>
pl ann
è de</w>
pro vo
mor t</w>
expéri ence</w>
difficul ties</w>
précé d
effici ent</w>
évén ements</w>
En vi
no r</w>
Ch ris
res er
lau n
séri eux</w>
n ation</w>
exam en</w>
view s</w>
clos ely</w>
colleag ue</w>
m .</w>
prop er</w>
distribu tion</w>
con solid
restric tions</w>
Cer ta
expec t</w>
Ser bi
déch ets</w>
des p
. m.</w>
mé dic
Cro ati
sug g
investi g
cau ses</w>
T i
re ference</w>
rati fication</w>
inter ven
g g
buil ding</w>
dev ra</w>
199 7</w>
con du
sh own</w>
le gi
fam ily</w>
ins pec
certa ine</w>
soci étés</w>
étrang ère</w>
territ oire</w>
call s</w>
v eux</w>
infra structures</w>
réfu gi
è rent</w>
ex pos
ap pl
libéral isation</w>
O n
S lov
Stra sbourg</w>
conv in
f -
2 4</w>
y eux</w>
accep ted</w>
ligh ted</w>
medium -
alis ed</w>
B o
in cor
tionn elle</w>
appe l</w>
di x</w>
cri mes</w>
p ed</w>
OM C</w>
Isra el</w>
it aires</w>
montr é</w>
inclu sion</w>
dan ge
si zed</w>
acc order</w>
préoccup ations</w>
ac y</w>
pr on
bal anced</w>
W TO</w>
E S
effectiv ement</w>
k a</w>
chi ff
o ral</w>
Un i</w>
du s</w>
provi ding</w>
circum st
prof es
re mind</w>
commit ments</w>
ord onn
è tes</w>
dé sormais</w>
beg inning</w>
si ble</w>
ig no
A cc
sup ply</w>
déclar ations</w>
excel l
divers ity</w>
Gener al</w>
vi er</w>
Royau me-
oc tro
o des</w>
Royaume- Uni</w>
dem an
Al lem
h ind</w>
To day</w>
f oun
don ne</w>
asy lum</w>
k en</w>
regre t</w>
govern mental</w>
desp ite</w>
sta ted</w>
et é</w>
Su m
independ ent</w>
2 3</w>
statu s</w>
s enti
his toire</w>
consider able</w>
dec lar
Ban que</w>
re ques
correc t</w>
N ice</w>
conséqu ence</w>
pers onal</w>
C an
expri m
de ath</w>
bro ad
ten us</w>
anim al</w>
transpar ent</w>
Isra ël</w>
hu ge</w>
conn u</w>
kno wn</w>
ell ing</w>
b y
spe ech</w>
pré serv
Au jourd&apos;</w>
us si</w>
W i
éven tu
benef its</w>
soul ev
sal ue</w>
hi er</w>
dis position</w>
g l
hu mains</w>
cl ause</w>
principa l</w>
im pose</w>
fi c</w>
be hind</w>
N é
prec isely</w>
righ tly</w>
Pe ople</w>
coura ge</w>
suffis amment</w>
circumst ances</w>
M E</w>
long- term</w>
opini ons</w>
p ir
h op
ta bles</w>
men ac
cur ren
renouv el
ty pes</w>
speci fically</w>
cons iste</w>
sti mul
heu reux</w>
consid eration</w>
agri coles</w>
scientifi c</w>
en contre</w>
F R</w>
B ru
T ro
princip aux</w>
reconna issance</w>
st op</w>
requi res</w>
fun c
c enta
Premi èrement</w>
rec ev
démocrati ques</w>
pré v
gra ves</w>
exten sion</w>
ambiti ous</w>
parti r</w>
p ill
tra it
cross -
ap préci
ab orer</w>
v ant</w>
meill eur</w>
step s</w>
pris on
d le</w>
pré voit</w>
a ît</w>
reç u</w>
over all</w>
wan ted</w>
J anu
gr ound</w>
ai e</w>
dé bats</w>
Janu ary</w>
accord ing</w>
trans fer
sp i
car ry</w>
Sum mit</w>
dé cl
comple te</w>
vo ix</w>
off re</w>
an g
sal u
en voy
jan vier</w>
coh ér
refer red</w>
tr ying</w>
ast er
N G
maxim um</w>
li ves</w>
en vers</w>
a ture</w>
success ful</w>
1 00</w>
ev id
des tru
ful f
fondam ental</w>
strength ening</w>
réalis er</w>
er t</w>
paragrap h</w>
S y
sup porting</w>
S ep
particuli ère</w>
a way</w>
Chris ti
2 2</w>
medi a</w>
cre ated</w>
spécifi que</w>
ti ss
g ly</w>
uss els</w>
land ais</w>
h es</w>
O u
Br ussels</w>
re structu
l -
ra ise</w>
lign es</w>
bureau crati
crimin al</w>
ve red</w>
Envi ron
un fortunately</w>
ill ég
ap er</w>
prac ti
inten si
tech nique</w>
transi tion</w>
rel ation
prof it</w>
establish ing</w>
go es</w>
re turn</w>
efficac es</w>
dé si
vér it
ta ire</w>
prov ision</w>
pr en
di o
competi tive</w>
o il</w>
le ft</w>
del à</w>
e aux</w>
con tenu</w>
CO M</w>
délég ation</w>
rou te</w>
lim it
d ru
Ger many</w>
t ting</w>
b onnes</w>
No v
I ris
Appl audissements</w>
vo irs</w>
permet tez-moi</w>
d ra</w>
commun es</w>
aster n</w>
E st
emphas ise</w>
au -
défin ition</w>
Bru x
pati ents</w>
d ation</w>
int ended</w>
eu sement</w>
consci ence</w>
for ced</w>
en seign
li n</w>
espér ons</w>
Iris h</w>
éli min
dev enir</w>
Brux elles</w>
région ale</w>
proch ain</w>
av aient</w>
wi de</w>
mi gration</w>
main tain</w>
élev é</w>
mal gré</w>
Europ éens</w>
économi es</w>
g as</w>
n om
ma i</w>
conclu de</w>
ral ly</w>
S p
H un
E s
seri ously</w>
ag ne</w>
fa ite</w>
d ers</w>
pur pose</w>
Pro di</w>
Qu es
tra ités</w>
sy n
ex change</w>
7 0</w>
rése aux</w>
J u
contribu tions</w>
re by</w>
N L</w>
ra tes</w>
emer g
Ru le</w>
N ow</w>
bi ais</w>
veu lent</w>
augm enter</w>
d é</w>
acqu is</w>
C ol
prés ence</w>
ex pend
qu ently</w>
im pression</w>
communic ations</w>
réf ér
m ing</w>
ad s</w>
y ond</w>
peu ples</w>
m un
réfugi és</w>
ic ally</w>
Appl ause</w>
N a
pou voirs</w>
vi ens</w>
refu ge
gen re</w>
déf i</w>
Europe ans</w>
perman ent</w>
Pro gram
ent rée</w>
déf endre</w>
re use</w>
caract ère</w>
CO 2</w>
se par
étu di
Allem agne</w>
pa in</w>
ori es</w>
main ta
res se</w>
évi dent</w>
t op
at oire</w>
repres ents</w>
consta ter</w>
medium- sized</w>
Su r</w>
plac ed</w>
fun d</w>
industri al</w>
d it
ai ms</w>
activ ity</w>
abil ité</w>
Sec urity</w>
Char ter</w>
pai d</w>
ré uni
dra wn</w>
au quel</w>
Mar ch</w>
ac tes</w>
parl é</w>
rest er</w>
parti s</w>
Ru les</w>
tionn elles</w>
Li ber
sem aines</w>
humanit aire</w>
cre di
pauv res</w>
h ors</w>
deci de</w>
con c
par ts</w>
comb ating</w>
empê cher</w>
set ting</w>
mar s</w>
ill u
sta tements</w>
repres ent</w>
men ace</w>
sup pri
H e</w>
is ent</w>
man u
particip er</w>
im ag
com ité</w>
mat eri
N ord</w>
mea sure</w>
recei ve</w>
pre ci
du ty</w>
li v
El les</w>
budg étaires</w>
y esterday</w>
ri t</w>
av er
i ques</w>
deal ing</w>
es po
allow ed</w>
har m
f ying</w>
Rom ania</w>
n é</w>
N e
Lu xembour
cré dits</w>
conver gence</w>
M i
C y
ou ght</w>
fol low</w>
co de</w>
stoc ks</w>
dra f
reconna ître</w>
h ard</w>
wee ks</w>
ré du
lim ited</w>
ch ed</w>
tâ che</w>
garanti e</w>
appro fon
pour rons</w>
expend iture</w>
enti re</w>
ani e</w>
v it
cho is
ris ks</w>
C eci</w>
M ac
Hun gar
médi as</w>
develop ments</w>
reduc ing</w>
par fois</w>
avi ons</w>
improv ed</w>
achiev ing</w>
og raphi
hist ory</w>
end er</w>
britan nique</w>
C ar
tour isme</w>
immi grants</w>
G e
cré di
st om
t ard</w>
candi date</w>
z ation</w>
be yond</w>
199 6</w>
spe aking</w>
re construction</w>
port er</w>
A d
par ty</w>
moy ennes</w>
in acceptable</w>
ar rang
an a</w>
ur ge</w>
f all
né anmoins</w>
call ing</w>
modi fication</w>
E v
c ity</w>
consomm ation</w>
alim entaires</w>
Th ir
b un
n eu
w ill
Stra te
b a</w>
Luxembour g</w>
viol ation</w>
Un fortunately</w>
mécanis me</w>
jo in</w>
pri mar
main ti
sou mis</w>
produ ce</w>
alis m</w>
éch elle</w>
ta le</w>
sign al
conna issance</w>
convin ced</w>
ev ent</w>
dev i
é ter</w>
ro o
aut on
H ow</w>
Fo reign</w>
loo king</w>
dé p
con cl
at tirer</w>
Nov ember</w>
w ing</w>
discuss ing</w>
r ise</w>
contrô les</w>
show s</w>
nov embre</w>
é cou
ex ist</w>
Program me</w>
ver t</w>
Rou manie</w>
ref er</w>
ol s</w>
gi ves</w>
dem ands</w>
avan tages</w>
bo dies</w>
i -ci</w>
recommand ations</w>
con fl
on cer</w>
Né anmoins</w>
so ins</w>
l ac
h un
in stead</w>
stu dy</w>
rése au</w>
w ise</w>
vi end
o eu
recommend ations</w>
recogni tion</w>
nouv el</w>
sel f-
al loc
P ME</w>
Ag enda</w>
fis c
H er
pac te</w>
genu ine</w>
c eci</w>
Gre ece</w>
ac teurs</w>
mondi alisation</w>
PP E-
alis ts</w>
b loc
ag ers</w>
trans frontali
confl its</w>
pr u
pag no
concre te</w>
hau t</w>
PPE- DE</w>
cel le-ci</w>
vis a</w>
argu ments</w>
olog ical</w>
L am
inter diction</w>
él aboration</w>
or m
di minu
internation aux</w>
fonc tion</w>
de li
cau sed</w>
comprehen sive</w>
tr ust</w>
cou v
compét ence</w>
ph y
la it</w>
author ity</w>
reg is
just ement</w>
establish ment</w>
is ol
impli que</w>
out come</w>
l ements</w>
el ements</w>
ajou ter</w>
ab ord
O r</w>
sec u
o to</w>
industri es</w>
proper ly</w>
po ra
high ly</w>
e ing</w>
Con férence</w>
milit aire</w>
dou ble</w>
v é
pre vention</w>
S elon</w>
huma ine</w>
ch ap
S ince</w>
U S
recogn ise</w>
con ference</w>
re in
cor respon
rais onn
A c
des cri
fir stly</w>
Mo reover</w>
ture l</w>
t éri
n ant</w>
w ron
orig in</w>
ent endre</w>
spi rit</w>
deleg ation</w>
ter a</w>
ran ge</w>
Tur k
A près</w>
us eful</w>
b arri
t a</w>
po or</w>
happ en</w>
Environ ment</w>
sep t
ati es</w>
1 3
par le</w>
2 6</w>
produc ers</w>
19 8
sou tenu</w>
sept embre</w>
Amend ments</w>
vo c
re mo
po l</w>
Sou th</w>
op tion</w>
e asi
Al though</w>
my self</w>
di a</w>
Sep t
S &apos;</w>
tra c
responsi bilities</w>
pi ed</w>
coop er
cl am
at lanti
appro visi
produc t</w>
cu t</w>
thre at</w>
Sept ember</w>
P ak
sou ligne</w>
simil ar</w>
tra iter</w>
flexi bility</w>
cr ises</w>
e qui
ist ers</w>
straté gique</w>
e f
ri e</w>
le ave</w>
parlem entaires</w>
m onn
M c
li ées</w>
cu s
Ger man</w>
govern ance</w>
mon o
analys is</w>
è lement</w>
v an</w>
Al liance</w>
liber alisation</w>
int el
h onn
cam pa
accro ître</w>
Strate gy</w>
M é
we a
produc ed</w>
fac ing</w>
cross- border</w>
all em
ver sion</w>
por tu
inter pre
tra fic</w>
is é</w>
f lu
requ ire</w>
dev en
P s</w>
H i
increas ingly</w>
défin ir</w>
ve hic
ra blement</w>
priv il
per tin
in no
rit ten</w>
des er
Palestini an</w>
Ky oto</w>
p alestini
a de</w>
Su d</w>
annu el</w>
tax es</w>
shi ps</w>
high er</w>
fici t</w>
il li
p étro
R O</w>
f al
flexi ble</w>
ré alisation</w>
ins ister</w>
dom s</w>
ap preci
intro duce</w>
con vic
médic am
1 .
essenti elle</w>
al one</w>
cit és</w>
bi g</w>
w it
ob viously</w>
to ber</w>
mechanis m</w>
gouvern ance</w>
cri tical</w>
B ur
s man</w>
tob re</w>
accid ents</w>
acc essi
è tement</w>
mati ques</w>
N evertheless</w>
minor ités</w>
man ner</w>
sensi ble</w>
pl en
ec tu
mi ère</w>
indépend ance</w>
M id
w ants</w>
d ol
ais ir</w>
V ic
M on</w>
Oc tober</w>
il ed</w>
Mal heureusement</w>
oc tobre</w>
négoci ation</w>
Pro ce
remar ques</w>
pres s</w>
con stru
la ws</w>
lead ing</w>
Au stri
popul aire</w>
Sp anish</w>
I tal
Ch am
r o</w>
es pagno
pass eng
d ant</w>
who m</w>
tu rally</w>
aut és</w>
w ish
G rè
stron gly</w>
s cale</w>
législ atif</w>
is ant</w>
is ten
Grè ce</w>
Ital y</w>
tax ation</w>
s chem
pa s
inform ed</w>
propos er</w>
exécu tion</w>
pl éni
9 8</w>
b lo
sub mitted</w>
dépu té</w>
contac t</w>
simpli fication</w>
naturel lement</w>
é po
manu fac
démocra tes</w>
discu ter</w>
évi dence</w>
practi ces</w>
fondam entales</w>
org ani
La dies</w>
2 8</w>
acc ent</w>
parti cipa
rel ati
mon etary</w>
el le
te dly</w>
net works</w>
curren cy</w>
compens ation</w>
suc ce
ti mate</w>
introduc ed</w>
du rant</w>
ab ou
y ons</w>
re member</w>
en orm
as h
ann oun
pon s</w>
intro duire</w>
mécanis mes</w>
tion ing</w>
bro ad</w>
lead ers</w>
par fa
at tribu
integra ted</w>
s ation</w>
C et</w>
targ ets</w>
pré hen
destru ction</w>
man date</w>
enti rely</w>
9 7</w>
co ordonn
potenti el</w>
pe ac
ill et</w>
épo que</w>
k i</w>
relation ship</w>
im es</w>
h ear</w>
res olutions</w>
happen ed</w>
fin ance</w>
Ver ts</w>
au- delà</w>
ad ded</w>
under standing</w>
lim it</w>
futu r</w>
Ira k</w>
è vement</w>
as king</w>
P aper</w>
ri ent</w>
diri ge
contr ary</w>
intel lig
avanc er</w>
Proce dure</w>
2 9</w>
chan ces</w>
ri ch
op ening</w>
clos er</w>
F or
is ée</w>
t ari
reas on
parfa itement</w>
Af ter</w>
éta pe</w>
pro ven
langu age</w>
Ag ency</w>
S pain</w>
buil d</w>
organis ed</w>
Tra de</w>
sc and
occa sions</w>
A N</w>
s ait</w>
réalis é</w>
dispos e</w>
fl éch
9 0</w>
dang erous</w>
cat ég
ju g
ver se</w>
re ply</w>
considé rable</w>
dé s</w>
S ome</w>
représent ent</w>
proto cole</w>
ré uss
co -
Gre en</w>
souti ent</w>
He alth</w>
souhait ons</w>
satisfac tion</w>
pen al
parl ons</w>
happ y</w>
t u</w>
Itali e</w>
l ater</w>
ic king</w>
Euro pol</w>
fo o
differ ences</w>
ç ons</w>
reduc ed</w>
Premi er</w>
pen d</w>
he al
m ag
con ten
ch ec
it ali
ear lier</w>
co l</w>
so -
regret table</w>
intro du
f ec
coh er
sup ports</w>
so ir</w>
pro pri
es sive</w>
tex ti
ell ectu
enqu ête</w>
r us
pens er</w>
glob ale</w>
ins i</w>
anim als</w>
A insi</w>
de ed</w>
dis h</w>
aut eur</w>
atte int</w>
no on</w>
neg ative</w>
Americ an</w>
thin king</w>
flexi bilité</w>
autor ité</w>
augm ent
for get</w>
- mêmes</w>
profes sion
excep tion</w>
alis tes</w>
Pak istan</w>
3 1</w>
supplém entaire</w>
Min isters</w>
h and
i dées</w>
ori entations</w>
C A
n ame</w>
fo res
minu tes</w>
rem plac
appli es</w>
t élé
demand ons</w>
ab ri
con tient</w>
mutu al</w>
ma s
concern és</w>
l aid</w>
dra it</w>
impos er</w>
Pri me</w>
vi ennent</w>
subst ance</w>
mor ning</w>
hy po
enti èrement</w>
dam age</w>
ag issant</w>
b or
sta ble</w>
mér ite</w>
ati onn
Ag ri
repr ises</w>
ro m
ch ez</w>
méth ode</w>
hic u
médicam ents</w>
ju dg
In deed</w>
rejec ted</w>
ag encies</w>
grow ing</w>
pa rer</w>
ar ing</w>
add ressed</w>
J a
in ts</w>
pléni ère</w>
int ellectu
mechanis ms</w>
Am érique</w>
si des</w>
so- called</w>
oc cid
aux quels</w>
vé hicu
renew able</w>
compa gni
procé der</w>
mar k</w>
wor d</w>
me dic
e y
concent rer</w>
Mid dle</w>
princip alement</w>
improv ement</w>
201 1</w>
rev ê
équ itable</w>
sensi tive</w>
en ni
conta ins</w>
v ais</w>
I s</w>
Es pagne</w>
t ori
sou ver
dis tor
wron g</w>
pour ront</w>
pré vu</w>
port ant</w>
loc ales</w>
ester n</w>
tin gs</w>
re ra</w>
per fec
meth ods</w>
we ak
c lim
N A
chan ger</w>
advan tage</w>
net work</w>
U K</w>
Ag ence</w>
mainti en</w>
ar es</w>
inten tions</w>
Americ a</w>
mati n</w>
li es</w>
judici aire</w>
au t</w>
B os
ari es</w>
l ands</w>
vi g
représent ant</w>
é changes</w>
tr ou
pour tant</w>
parliam ents</w>
o is</w>
fi és</w>
com pos
Al b
pl oy
vo ire</w>
safe gu
se ek</w>
- B
elec ted</w>
some times</w>
L ors
att endre</w>
C 5-0
tic les</w>
l ess
inst ance</w>
go sl
milli ers</w>
Vic e-
ré fléch
dev ront</w>
lu mière</w>
extra ordin
efficac ement</w>
so ve
inter gouvernem
ser ves</w>
monn aie</w>
Bar cel
dom in
pro spec
st o
pr ouv
parl ements</w>
figu re</w>
technolo gie</w>
origin al</w>
crimin alité</w>
mala dies</w>
initi al</w>
col o
arri v
s ent</w>
guarante es</w>
f all</w>
cri tique</w>
commerci ales</w>
c ing</w>
L A
exam ine</w>
procha ines</w>
approuv é</w>
b ab
assur ance</w>
co vered</w>
co ver</w>
ar ti
ME Ps</w>
accompl i</w>
char ac
é cr
oeu vre</w>
prê ts</w>
Russi an</w>
S ME
com préhen
habit ants</w>
5 00</w>
sin c
clim at</w>
ter ri
dom esti
lin ked</w>
inter pré
élec tri
ra in</w>
it ent</w>
s end</w>
auton om
E L</w>
re cours</w>
Ques tion</w>
s ays</w>
fais ons</w>
Bos ni
sou n
SME s</w>
199 5</w>
independ ence</w>
B 5-0
ser aient</w>
institu tionnel</w>
E M</w>
gar de</w>
defin ition</w>
oubli er</w>
intéri eures</w>
con citoyens</w>
concr ètes</w>
san ds</w>
frau d</w>
cu stom
recommand ation</w>
envir on</w>
t ch
as sure</w>
modi fier</w>
K ing
f abri
ch ré
meth od</w>
is ées</w>
consist ent</w>
pers ons</w>
neigh bour
ide as</w>
h ome</w>
expri mé</w>
S a
w at
recommend ation</w>
caract ér
he ad
finan ces</w>
confron tés</w>
becom ing</w>
at ement</w>
sta ff</w>
hi le</w>
contra ign
manag ed</w>
M ol
ru e</w>
Mar k
9 6</w>
F re
alis er</w>
ré flexi
refuge es</w>
i ght</w>
A 4-0
ag ences</w>
deal t</w>
Christi an</w>
ing ing</w>
cir const
Itali an</w>
vois ins</w>
j eu</w>
immedi ately</w>
comple x</w>
eli min
ré elle</w>
fa ites</w>
am en
scientifi ques</w>
pend ing</w>
tru c
main ly</w>
lo cation</w>
ch eurs</w>
sé par
s cho
comp any</w>
prob ably</w>
n s</w>
b as</w>
deman des</w>
decisi on-
Tro isi
b in
ac te</w>
Char te</w>
espo ir</w>
cho ice</w>
mo t</w>
wor ked</w>
par ta
high light</w>
ec u
B y</w>
pre v
convainc u</w>
approvisi onnement</w>
traff icking</w>
be ar</w>
ab oli
King dom</w>
C I
coû t</w>
fer a</w>
on ally</w>
per su
pa tri
op les</w>
exclu si
enorm ous</w>
m ic
mé diterran
fam ille</w>
modi fications</w>
inter ventions</w>
Turk ish</w>
C am
dis charge</w>
su jets</w>
a head</w>
deb ates</w>
R o
r ying</w>
o rable</w>
lon gue</w>
ab st
e es</w>
celu i-ci</w>
pres er
any thing</w>
rest ed</w>
coun ter
A t
collec tive</w>
garanti es</w>
fail ure</w>
subsidiar ité</w>
régi onal</w>
resol ve</w>
extéri eure</w>
0 0
é do
H -0
1 er</w>
règ lements</w>
eux -ci</w>
cal end
inclu des</w>
engag er</w>
au ront</w>
a ci
Bel gi
établ issement</w>
wel l-
exac tly</w>
déci der</w>
cent res</w>
mo ts</w>
e as
ê me</w>
mo bilité</w>
qu e
conomi es</w>
B ro
glob alisation</w>
phy si
to ral</w>
et ting</w>
O s</w>
A C</w>
un il
pre ven
Pol and</w>
ther wise</w>
dis cours</w>
mon tant</w>
él aborer</w>
renouvel ables</w>
bac k
terroris tes</w>
e conomies</w>
d t</w>
M any</w>
législ ative</w>
bl an
7 5</w>
sym bo
s ac
en ci
Con cer
vis as</w>
produ ire</w>
cep ti
thou ght</w>
méth odes</w>
judi cial</w>
v éri
ac ts</w>
aw ar
catastrop he</w>
ér ité</w>
politi ci
il st</w>
continu ing</w>
chang ed</w>
gra te
elle -même</w>
speak ers</w>
pe oples</w>
territ ory</w>
t est</w>
beli ev
attemp t</w>
prob ablement</w>
fem me</w>
avi ation</w>
é ro
l am
géné ra
extéri eures</w>
T un
me an
Cu ba</w>
fon d</w>
grate ful</w>
de gre
te es</w>
pres que</w>
dit ors</w>
a x
vi r
remar que</w>
Mon etary</w>
subsidiar ity</w>
off rir</w>
Ju ly</w>
minu te</w>
pass agers</w>
ori entation</w>
rel atifs</w>
pu tting</w>
end or
trans atlanti
i cial</w>
pers on</w>
3 5</w>
chil d</w>
dé charge</w>
ju illet</w>
au th
EU -
A ra
M ême</w>
protec ting</w>
au près</w>
P act</w>
thou sands</w>
t reaty</w>
laiss er</w>
LA F</w>
substanti al</w>
pres se</w>
ni vers
plen ary</w>
et c
R ap
Thir dly</w>
Afri can</w>
exten d</w>
exerc ise</w>
évalu er</w>
vi ce</w>
minor ities</w>
mentionn é</w>
off ice</w>
S truc
Pu bli
pu bl
m ent
han dic
Comm ent</w>
nor m
il os
th ème</w>
E m
u rer</w>
g yp
cri tiques</w>
us es</w>
gr oun
or gi
pr us</w>
Cy prus</w>
super vision</w>
essenti els</w>
considé rer</w>
souten ons</w>
on cé</w>
er gy</w>
disast er</w>
P SE</w>
un able</w>
déta ill
appe ar</w>
con ventions</w>
ch é</w>
disponi bles</w>
m ouv
ambi tion</w>
adop ting</w>
ch t</w>
og ne</w>
lim ites</w>
au rons</w>
mar chan
charg es</w>
r oul
invol vement</w>
bo ard</w>
compet ence</w>
ambiti eux</w>
tradi tion</w>
facil iter</w>
L eg
t ance</w>
nor mal</w>
G en
Bulgar ia</w>
mo bil
pro sp
om en
Pol ogne</w>
i dé
recogn ised</w>
k ers</w>
Struc tural</w>
figu res</w>
stric t</w>
religi on</w>
De puis</w>
ar ms</w>
pour su
elec tion</w>
6 -0
pos es</w>
Cham ber</w>
dé part</w>
répon ses</w>
repe at</w>
ke ep
op h
bénéfici er</w>
Publi c</w>
oppos ed</w>
G ro
o v
etc .</w>
ad a</w>
ta it</w>
m ation</w>
Fun ds</w>
wish es</w>
1 5
sta de</w>
du m
Agri culture</w>
dispos ons</w>
bas es</w>
nav ires</w>
def end</w>
I B</w>
fau dra</w>
eas y</w>
contro ls</w>
Wh y</w>
che fs</w>
p .m.</w>
memb ership</w>
G az
En ergy</w>
rel ever</w>
in come</w>
frau de</w>
ag en</w>
P a
bin ding</w>
Acc ord
mo i-même</w>
consomm ateur</w>
th u
prépar ation</w>
inter venir</w>
es sions</w>
Certa ins</w>
é matique</w>
déb att
li k
concern ées</w>
re le
mo bility</w>
inst all
immedi ate</w>
déla i</w>
vol un
intern et</w>
ci pl
expl an
exc essive</w>
emb ly</w>
véhicu les</w>
re venir</w>
Ev en</w>
re alis
desi re</w>
Z im
sig n</w>
pay ments</w>
g etting</w>
t on
commerci aux</w>
ar ch
aff airs</w>
ten tion</w>
fai ble</w>
fac ed</w>
Bulgar ie</w>
b â
m acro
ri es</w>
il o
cul tures</w>
contra dic
régu li
handic ap
applic able</w>
re au</w>
inten d</w>
evalu ation</w>
organ es</w>
d is</w>
on c
fin alement</w>
nuclé aires</w>
per form
inclu re</w>
compl y</w>
Re gi
S V</w>
environnem entale</w>
decision- making</w>
civ il
é colo
famili es</w>
cont re
cham p</w>
Rom a</w>
bil ateral</w>
I S</w>
compli ance</w>
av ing</w>
argu ment</w>
fin s</w>
ent rer</w>
flo or</w>
contac ts</w>
pen sions</w>
go al</w>
f ish</w>
él abor
lim iter</w>
gra du
br inging</w>
précé dent</w>
adop tées</w>
pré f
fis cal</w>
to tale</w>
lu i-même</w>
compati ble</w>
w ai
sec ure</w>
ri l</w>
i ds</w>
ho od</w>
commit tees</w>
interes ting</w>
tri ces</w>
th reat
acc él
estim ons</w>
cus sions</w>
tal ks</w>
se em</w>
ré serve</w>
me rely</w>
D A</w>
tot ally</w>
free doms</w>
fer mement</w>
contin ues</w>
ori z
t old</w>
z er
mon th</w>
employ ed</w>
circonst ances</w>
sus cepti
n ée</w>
seri es</w>
sh ared</w>
b ation</w>
op tions</w>
communi ties</w>
élec tr
bo o
d omm
tru ly</w>
tack le</w>
socialis te</w>
électr oni
sign é</w>
ê tres</w>
fau drait</w>
unanim ité</w>
ra ss
r y
compa gn
capa bles</w>
ad ress
suiv ante</w>
e tings</w>
follow ed</w>
Troisi èmement</w>
re ad</w>
ro vi
l ate</w>
arri ve</w>
see king</w>
dirige ants</w>
t led</w>
réalis és</w>
expli quer</w>
re ject</w>
propos ing</w>
fer rovi
bur den</w>
t and
ouv rir</w>
fu sion</w>
dispos er</w>
at or</w>
Pour quoi</w>
qu ar
gh ting</w>
bien -
accid ent</w>
tic ally</w>
re jo
lo is</w>
dis cipl
resol ved</w>
ati que</w>
Q ue</w>
regret te</w>
el ement</w>
com port
appe al</w>
ON U</w>
7 -
utilis és</w>
reason able</w>
peti ts</w>
bu d
A pri
invol ving</w>
knowle dg
condu ite</w>
wea pons</w>
si l
c ame</w>
st er</w>
coh érence</w>
av ril</w>
ph én
ou th</w>
indi qué</w>
in suffis
scientifi que</w>
marchan dis
immédi atement</w>
gre atest</w>
re a</w>
minor ity</w>
fondam entale</w>
Apri l</w>
milit aires</w>
enseign ement</w>
op éra
degre e</w>
ti fication</w>
détermin ation</w>
affir mer</w>
statis tiques</w>
so i</w>
ic s</w>
du l
M oy
Al ors</w>
tour ism</w>
r un
gar der</w>
chiff res</w>
S ol
b ed</w>
lan gues</w>
cen tu
trouv ent</w>
ob tenu</w>
lo st</w>
ent ry</w>
con jo
N ew</w>
-t- elle</w>
speak er</w>
ra il</w>
c ess
A ve
us h</w>
pro s
f ear</w>
envisag er</w>
st re
ob vious</w>
isi e</w>
intég rer</w>
ill ed</w>
e ded</w>
autom ob
T a
mar g
er n
el se</w>
phén om
land aise</w>
D ur
accep té</w>
prog resser</w>
or es</w>
pos s
deta iled</w>
pre ad</w>
i rement</w>
intergouvernem entale</w>
a rer</w>
- up</w>
is és</w>
por ary</w>
g raphi
ac compagn
V an</w>
g ender</w>
op pose</w>
compl ète</w>
ouver te</w>
contrô ler</w>
vérit ablement</w>
comm entaires</w>
reg ist
servi r</w>
me etings</w>
int y</w>
declar ation</w>
Se a</w>
li e</w>
certa inty</w>
di vi
réuss ite</w>
rapp elle</w>
différ ences</w>
soun d</w>
premi ères</w>
20 0</w>
observ ations</w>
g en</w>
care fully</w>
under min
el l</w>
correc tement</w>
appro val</w>
wh at
t onnes</w>
per cussions</w>
C z
the reby</w>
op ti
fail ed</w>
fish er
de signed</w>
pres ence</w>
facilit ate</w>
ç ant</w>
p ire</w>
ali ments</w>
stand ard</w>
tr on
di vers</w>
Au ditors</w>
étro ite</w>
terroris t</w>
se ts</w>
é ral</w>
d ings</w>
appr ouve</w>
œ ur</w>
religi ous</w>
fis cale</w>
dis ant</w>
ul ture</w>
off icial</w>
O T
sau ve
lo gique</w>
féli cit
saf e</w>
meill eures</w>
M e
cam pagne</w>
ar ily</w>
-O rient</w>
m issions</w>
a -t-il</w>
senti ment</w>
rap proch
respec ted</w>
h oriz
vic e-
elec tri
1 ;</w>
&#9 1;</w>
m uni
dis pu
pr end</w>
dum ping</w>
traff ic</w>
histori que</w>
hau te</w>
impli cations</w>
sec re
w on
par tag
regul atory</w>
participa te</w>
targ et</w>
inst ant</w>
cy cle</w>
lo y
sub ventions</w>
mul tin
extéri eur</w>
expl ain</w>
arrang ements</w>
g ical</w>
conduc t</w>
co t
Res earch</w>
énor me</w>
ver tu</w>
pré al
dev ait</w>
res sor
Zim bab
pu issions</w>
mo bi
evid ence</w>
it- il</w>
modern isation</w>
air man</w>
H el
us age</w>
observ ation</w>
exer cer</w>
reco very</w>
go als</w>
c as
hab itu
de lighted</w>
finan cer</w>
consum ption</w>
Nor th</w>
Gaz a</w>
acc rue</w>
p un
l our
entrepr en
cl é</w>
a stri
ora teurs</w>
f le
A ction</w>
v ite</w>
hear t</w>
gran ted</w>
keep ing</w>
re ign
franç ais</w>
r ations</w>
improv ements</w>
en tu
E astern</w>
trans actions</w>
repr ise</w>
emphas is</w>
attend ons</w>
L an
ti mat
ex port</w>
ais on</w>
suff ering</w>
ploy ment</w>
Wi th
erre ur</w>
exac tement</w>
Lors que</w>
commun autés</w>
cat eg
iss ances</w>
fam illes</w>
rapp el
iss ante</w>
arri ver</w>
Bu reau</w>
ter rain</w>
essenti ellement</w>
f are</w>
vehic les</w>
dise ase</w>
ex ecu
Moy en
L iv
u t
vo ice</w>
cou ver
région ales</w>
monit or</w>
environnem entales</w>
vi vre</w>
culturel le</w>
sup éri
dé roul
appro bation</w>
produc tive</w>
princip ales</w>
du es</w>
bud sman</w>
T ous</w>
D ès</w>
Swe dish</w>
pay er</w>
9 9</w>
pré parer</w>
ri g
opér ationn
j ur
c œur</w>
star ting</w>
catastrop hes</w>
4 5</w>
pros per
le z</w>
ten ue</w>
propos es</w>
eux -mêmes</w>
credi bility</w>
compl ém
utilis é</w>
Ber lin</w>
expec ted</w>
ci ties</w>
diver ses</w>
calend rier</w>
ar ticles</w>
propos és</w>
montr ent</w>
de ad
subsi dies</w>
et ed</w>
comm issions</w>
I N
C E
sc ru
lim ite</w>
dev rons</w>
Soci alist</w>
sup pli
justi fi
tes ts</w>
Copenh agen</w>
func tioning</w>
Can ada</w>
comb attre</w>
bien- être</w>
US A</w>
Su ch</w>
possi bles</w>
pos ed</w>
cre dit</w>
par lement</w>
defin ed</w>
W hile</w>
mar che</w>
Copenh ague</w>
rap id</w>
un ité</w>
sp ent</w>
mas sive</w>
in cit
rap h
fé dé
convain cu
v ali
tri bun
port ée</w>
ress ing</w>
préserv er</w>
happen ing</w>
Ma astri
propos ée</w>
parven us</w>
par ents</w>
b at
Maastri cht</w>
timat ely</w>
ou i</w>
invol ve</w>
in sur
té mo
du rée</w>
actu elles</w>
Ch in
è que</w>
s é</w>
reven us</w>
plann ing</w>
g la
ban ques</w>
compagni es</w>
J o
favor iser</w>
Ave c</w>
si fication</w>
pa cifi
marchandis es</w>
professionn elle</w>
v acc
iti é</w>
encourag ing</w>
se a</w>
lin gu
is té</w>
adéqu ate</w>
effec tiveness</w>
3 ;</w>
&#9 3;</w>
gi ble</w>
determin ation</w>
Moyen -Orient</w>
positi fs</w>
e z-vous</w>
yp re</w>
sugges tions</w>
en ess</w>
Ge orgi
Ch ypre</w>
adap tation</w>
O m
ru p
ri ca
fi ghting</w>
dépos é</w>
appropri ations</w>
inf lation</w>
dru gs</w>
ret ard</w>
enti er</w>
dis ap
ap parti
opér ations</w>
af rica
1 6
destin és</w>
actu al</w>
attac ks</w>
G ali
in form</w>
ad voc
is tiques</w>
ent re
Leg al</w>
lan gue</w>
lim its</w>
leg ally</w>
T re
Fra mework</w>
gosl av
Isra el
part ner</w>
mala die</w>
citoy en</w>
W estern</w>
ser ons</w>
bil atéra
tu s</w>
enti al</w>
prof iter</w>
justi fied</w>
in age</w>
im age</w>
S an
crédi bilité</w>
all ou
mat éri
for th
e c</w>
Mark et</w>
g ave</w>
c eux-ci</w>
ren du</w>
in er</w>
del ay</w>
la w
lanc er</w>
ro -
ré action</w>
na turally</w>
can cer</w>
appropri ée</w>
A vant</w>
au to
ré solutions</w>
affec t</w>
législ atives</w>
réflexi on</w>
mati ères</w>
seu ls</w>
distin ction</w>
s pace</w>
exi ge</w>
déla is</w>
r un</w>
esp è
charac ter
E st</w>
H U</w>
fac tors</w>
considé rables</w>
rou ti
endor se</w>
Su b
gr ant</w>
experi en
diffici les</w>
concl u</w>
profession al</w>
Swe den</w>
ré s
th é
ér ations</w>
raisonn able</w>
préoccup ation</w>
critic ism</w>
play ed</w>
préc is</w>
tec tion</w>
en regist
Zimbab we</w>
pris on</w>
bi ens</w>
ra v
chem in</w>
volun t
Om budsman</w>
associ ations</w>
et tes</w>
contribu é</w>
conflic ts</w>
S to
Gre ek</w>
Sta bility</w>
complex e</w>
eth ni
high -
Mé diterran
compr ends</w>
O LAF</w>
ad resser</w>
D P</w>
ver si
spe ed</w>
c tu
exist ent</w>
des tro
approuv er</w>
éri ques</w>
lo se</w>
li en</w>
d ents</w>
u rs</w>
OT AN</w>
v olu
invest ments</w>
altern atives</w>
represent ative</w>
fic es</w>
au che</w>
deta il</w>
w arm
faci le</w>
sup pression</w>
ann ex
PP E</w>
ti di
F ish
continu ed</w>
Liv re</w>
trav el</w>
v aste</w>
trans fer</w>
tex tes</w>
rem pli
eng age</w>
Méditerran ée</w>
le y</w>
f il
M an
x i
D o
vul ner
cont es
On ly</w>
In dia</w>
9 5</w>
rest ent</w>
sol ve</w>
employ ees</w>
détermin er</w>
opportun ité</w>
fac tor</w>
organis er</w>
i -
présid ents</w>
F rom</w>
évo qué</w>
conserv ation</w>
equi p
en ab
reflec t</w>
pétro le</w>
inqui études</w>
O S
domesti c</w>
Fun damental</w>
P ay
dise ases</w>
é lo
langu ages</w>
ast ly</w>
In stitu
sk i</w>
iv al
ban ks</w>
negoti ating</w>
inter ne</w>
fas se</w>
dépl oy
Rap port</w>
for tement</w>
c é
méditerran é
constru ire</w>
ouver t</w>
G r
he av
essay er</w>
campa ign</w>
convic tion</w>
gra v
p éti
In de</w>
ou d</w>
Su ède</w>
ret our</w>
dev o
ven ue</w>
ong st</w>
am ongst</w>
Cz ech</w>
mo ral</w>
F l
201 2</w>
impos ed</w>
arrê t</w>
è nes</w>
puis qu&apos;</w>
satisfac tory</w>
low er</w>
realis tic</w>
A sh
ay ons</w>
Commission ers</w>
A s
ét endre</w>
éner gies</w>
h ours</w>
K ar
tra ding</w>
aéri en</w>
sto od</w>
refer endum</w>
inform er</w>
tand is</w>
s er</w>
forth coming</w>
safegu ard</w>
iss ait</w>
de hors</w>
compl ain
shi p
ri d</w>
in cl
différ ence</w>
pour rions</w>
contro l
star ted</w>
remar ks</w>
ch im
po ids</w>
cohér ente</w>
co décision</w>
constitu tional</w>
W omen</w>
r ound</w>
num erous</w>
for um</w>
cl aires</w>
peti t</w>
dé plac
Fe bru
F i
legi timate</w>
cri re</w>
at ell
Th ose</w>
Febru ary</w>
ra g
mo tiv
Vice- President</w>
ré serves</w>
quo tidi
guarante ed</w>
occup ation</w>
in d
au raient</w>
M ill
Fin an
lik ely</w>
cul turel</w>
ren cont
f év
capa cités</w>
S ar
éch ec</w>
ven u</w>
commun s</w>
commerci ale</w>
pay ment</w>
groun ds</w>
fon dée</w>
as pir
per p
fév rier</w>
cl e
p ilo
appe ars</w>
ob tain</w>
actu els</w>
M u
fer me</w>
Y et</w>
wel fare</w>
onn er</w>
è ge</w>
c op
R ome</w>
A n</w>
mo indre</w>
hau sse</w>
ev ening</w>
référ endum</w>
ré clam
mi grants</w>
harm ac
aboli tion</w>
éc ar
ve z</w>
abst en
Budg ets</w>
L astly</w>
Finan cial</w>
mo ving</w>
constitu er</w>
NA TO</w>
occu pe</w>
lab elling</w>
termin er</w>
lin k</w>
béné fi
af ter
wor th</w>
naturel les</w>
hel ping</w>
dra wing</w>
I m
us h
ti onne</w>
ta ires</w>
pour suite</w>
n on
CA P</w>
siè cle</w>
demonstra ted</w>
peac eful</w>
amélior ations</w>
Per s
easi er</w>
considé rablement</w>
neigh b
m ly</w>
eth eless</w>
tiv ement</w>
ta ille</w>
oper ations</w>
ni er</w>
nei ther</w>
maj eure</w>
for ê
b es</w>
tionn els</w>
ab sta
ba c</w>
ON G</w>
Accord ing</w>
É tant</w>
gener ally</w>
let tre</w>
deb t</w>
Portu gu
com bien</w>
appli que</w>
ethni c</w>
disast ers</w>
technolo gical</w>
olo gy</w>
ta bac</w>
fo re
é di
trans port
lead ership</w>
ch ent</w>
F is
souhait ent</w>
pers onally</w>
fir m</w>
demonstra te</w>
vi vent</w>
vi ande</w>
â g
quali fications</w>
an nivers
ré ussi</w>
it age</w>
de e
ter ons</w>
Pl us</w>
protec ted</w>
inte rested</w>
ba d</w>
Concer nant</w>
Re port</w>
P AC</w>
se l</w>
s pending</w>
s ites</w>
déb attre</w>
Tre aties</w>
tr ont</w>
pro che</w>
in o</w>
commiss aires</w>
appropri é</w>
w ritten</w>
reach ing</w>
propos ées</w>
cru ci
priv é</w>
consci ents</w>
at oires</w>
T am
gla d</w>
tor ture</w>
2 .
élev és</w>
ge ons</w>
fac teurs</w>
ef ly</w>
établ i</w>
règ le</w>
fe der
citiz en</w>
to x
sub s
concern ent</w>
Portugu ese</w>
trouv é</w>
territori al</w>
is tic</w>
est- il</w>
conclu ded</w>
alesti ne</w>
a éro
P alestine</w>
explo it
cooper ate</w>
vi v
présent ée</w>
mati c</w>
pai ement</w>
att le</w>
1 8
sexu al</w>
signal er</w>
appro ve</w>
pê cheurs</w>
A b
wh ilst</w>
re iter
mauv aise</w>
garanti ss
assu mer</w>
éti que
ab sur
pre fer
no ted</w>
destin ées</w>
depend ent</w>
v ing
ré dig
apport é</w>
prof its</w>
environnem entaux</w>
aux quelles</w>
ap porte</w>
re main
consolid ation</w>
réfléch ir</w>
pos t
ci des</w>
centu ry</w>
am pl
ré sol
met tent</w>
adap ter</w>
all èlement</w>
R E
conta ined</w>
regu lar
conta min
atten d</w>
ti me
réuni ons</w>
r i</w>
inf r
differ ence</w>
custom s</w>
acc o</w>
In du
pai ements</w>
H am
plu ral
in cen
em entary</w>
tas ks</w>
re vision</w>
tin i</w>
ess ing</w>
equ ally</w>
étique tage</w>
st ration</w>
t ar
excell ente</w>
vis it</w>
sh ad
s és</w>
préc ise</w>
associ ated</w>
ar dis
y m
dign ité</w>
oper ators</w>
dign ity</w>
ambi tions</w>
vois inage</w>
transfer t</w>
is tique</w>
a ises</w>
politici ans</w>
transi t</w>
ret ar
dis ab
s ev
insta urer</w>
mono po
alis me</w>
sci ence</w>
is ra
investi r</w>
int ol
sus pend
sta bilisation</w>
penal ty</w>
tradi tional</w>
let ter</w>
inqui étude</w>
suff it</w>
ther lands</w>
ra ge</w>
allow ing</w>
ab ol
Ne therlands</w>
pro hi
i vi
cl o
olo gie</w>
franç aise</w>
confir m</w>
pa th</w>
rec y
direc trices</w>
principa le</w>
prepar ing</w>
import ations</w>
bl er</w>
ans w
alloc ated</w>
s ent
obsta cle</w>
ex p
Ass embly</w>
p ic
fi f
exist antes</w>
dé gag
pro cu
arb it
consul tations</w>
Pro tection</w>
Hi gh</w>
lanc é</w>
3 7</w>
moder n</w>
élec to
soci o-
G iv
séri eusement</w>
ap rè
uti les</w>
Bal tic</w>
install ations</w>
géné rales</w>
ch au
adop te</w>
Tran sport</w>
S i
ain ed</w>
maj eur</w>
aprè s-
ach es</w>
a ï
mentionn er</w>
volunt ary</w>
permet tent</w>
separ ate</w>
requi rement</w>
civi li
Croati a</w>
sym pa
favo rables</w>
propor tion</w>
primar ily</w>
direc te</w>
lib re-
im ports</w>
ge ant</w>
compl ètement</w>
Fish eries</w>
vi able</w>
pur poses</w>
au rions</w>
administr atives</w>
S af
ins iste</w>
plac es</w>
l isten
statis tics</w>
vis u
sep t</w>
prosp érité</w>
passeng ers</w>
constitu tionnel</w>
t ch</w>
sec ré
reques ted</w>
ir landais</w>
Chin ese</w>
suppri mer</w>
s mo
program me-
mi di</w>
formul er</w>
politi cs</w>
fir mly</w>
mo itié</w>
At lanti
m ur
im mun
fu tures</w>
vulner able</w>
ti n</w>
t our</w>
at ti
decisi ve</w>
aver age</w>
D esp
will ing</w>
over come</w>
forc ement</w>
Desp ite</w>
D oh
tra ge
rel ève</w>
tri ed</w>
minist ers</w>
1 7
rel ates</w>
pré venir</w>
organis ée</w>
n our
f ail</w>
Doh a</w>
texti le</w>
él ar
y a</w>
ressor tiss
programme- cadre</w>
concent ration</w>
Croati e</w>
tol er
personn ellement</w>
C S</w>
man age</w>
ajou tée</w>
tem porary</w>
sta bil
off ers</w>
emerg ency</w>
awar eness</w>
recev oir</w>
amend ing</w>
Li by
ter ing</w>
rév él
revê t</w>
pass ed</w>
influ en
dange reux</w>
cep tion</w>
too l</w>
allow s</w>
souver ain
hon orable</w>
exis ts</w>
prepar e</w>
lear n</w>
tem pora
ré el</w>
mutu elle</w>
fon d
er ro
au di
ro les</w>
a tures</w>
é th
attac k</w>
sal ari
d an</w>
ambi gu
tend ance</w>
tch èque</w>
exist ants</w>
and a</w>
u su
pré vue</w>
fi ant</w>
ch al
bu l
lib res</w>
industri elle</w>
export ation</w>
coordin ated</w>
spo ke</w>
exemp les</w>
fu el</w>
ch ement</w>
Giv en</w>
vig il
AL E</w>
ill s</w>
exam ples</w>
pri o
insta ur
exc essi
chap it
announ ced</w>
B as</w>
l at
recy cl
en jo
centa ge</w>
att en</w>
ob ta
B rit
ra il
b ou
ati ques</w>
200 7-
strength ened</w>
spo ken</w>
M a</w>
elec tron
chang ing</w>
ali ties</w>
Sto ck
F ran
un es</w>
gé ographi
confir med</w>
ré ment</w>
Pay s-
organis mes</w>
oper ational</w>
prosper ity</w>
Con sumer</w>
travaill é</w>
tradi tions</w>
tax e</w>
AL DE</w>
re sid
fonctionn aires</w>
n evertheless</w>
cou rir</w>
R ec
fulf il</w>
bi r
huma ines</w>
radi o
fix er</w>
Pays- Bas</w>
whe re
si as
propri été</w>
hu main</w>
ext ended</w>
catég ori
péri ph
p harmac
A ussi</w>
chré tiens</w>
activ ement</w>
v aut</w>
jou e</w>
cré é</w>
rég imes</w>
li ghts</w>
enti ère</w>
tob acco</w>
priv atis
syst em
fonc tionne</w>
équi p
v illes</w>
Constitu tional</w>
pa per</w>
présid ente</w>
ag ence</w>
Asi e</w>
vo is</w>
eu reusement</w>
ag ency</w>
L ond
an e</w>
préc iser</w>
oper ate</w>
no tion</w>
schem e</w>
pou ss
individu als</w>
assu me</w>
sinc èrement</w>
at trac
to ires</w>
du ra
straté gies</w>
fru it</w>
I F
any one</w>
strate gies</w>
plann ed</w>
sac ri
proce ed</w>
ora teur</w>
amoun ts</w>
expli cit
énergéti ques</w>
re connu</w>
o therwise</w>
sp h
Ti b
repres ented</w>
int ends</w>
sove reign
ph en
quali fied</w>
ex cu
NG Os</w>
introduc ing</w>
im men
as sum
e dly</w>
invol ves</w>
élec tion</w>
n ent</w>
ass ass
ab use</w>
co decision</w>
L ors</w>
n éra
olo gique</w>
ti ennent</w>
vul néra
Qu ant</w>
ap pa
Pro to
s ite</w>
m ette</w>
respec te</w>
essenti elles</w>
Her z
A R
réglem entations</w>
doub tedly</w>
be hav
vo ient</w>
b ra
Rom s</w>
proper ty</w>
pi lier</w>
par tout</w>
t te</w>
e ding</w>
blan c</w>
ori entale</w>
contrô l
coher ent</w>
clari fy</w>
preven ting</w>
expec tations</w>
jou é</w>
P atten</w>
G UE</w>
enti tled</w>
u v
cent rales</w>
cc o</w>
intro duit</w>
ab us</w>
pa ss</w>
organis é</w>
gr and
g ain</w>
dép it</w>
dé tru
g one</w>
export ations</w>
fri end
fra is</w>
Em ployment</w>
vér ité</w>
déta ils</w>
cré dit</w>
cri ti
Au tri
voul u</w>
pl ani
pl aisir</w>
tre ated</w>
terri ble</w>
cel les
Ash ton</w>
di vision</w>
Serbi a</w>
trans position</w>
s cep
re vient</w>
phénom ène</w>
Mal gré</w>
Th ur
suiv ant</w>
progres si
conna ître</w>
â ge</w>
te red</w>
sim ul
arg o</w>
libre- échange</w>
appu i</w>
ac knowledg
tru th</w>
li é</w>
fin e</w>
defin e</w>
ac compli
D o</w>
urg ently</w>
sou mettre</w>
ag g
st ands</w>
pl at
hon gro
visi ble</w>
histori c</w>
En suite</w>
- European</w>
fac teur</w>
l as
ad ly</w>
Al g
américa in</w>
ö m</w>
bri ef</w>
vi e
proc esses</w>
éni e</w>
phen omen
perform ance</w>
i ve</w>
form u
envoy er</w>
atta quer</w>
al -
ul tra
str öm</w>
in c
l atest</w>
igno re</w>
A no
ul timately</w>
sovereign ty</w>
Ano ther</w>
progres sive</w>
vi vement</w>
ferrovi aire</w>
adop tés</w>
Thur s
Asi a</w>
fisher men</w>
Be fore</w>
secre t</w>
gu i
commen cé</w>
ch in
Y u
Inter governmental</w>
mo ra
Israel i</w>
n es
con fusion</w>
Fo od</w>
re conn
publ ished</w>
offici als</w>
ta bly</w>
re alise</w>
deb ating</w>
d ette</w>
a ille</w>
barri ers</w>
D on
si ze</w>
in com
er ia</w>
contribu e</w>
ple in</w>
multin ation
différ ente</w>
T im
stron ger</w>
souverain eté</w>
gener ation</w>
fu t</w>
cl és</w>
bri efly</w>
b one</w>
prec ed
ar k</w>
D el
ten d</w>
celles -ci</w>
appreci ate</w>
au ses</w>
vir tu
ré solu
relati vement</w>
pursu e</w>
li ers</w>
foo t
ati cally</w>
permet trait</w>
ent ative</w>
automob ile</w>
4 8</w>
M us
insur ance</w>
ass ess</w>
Thurs day</w>
tag ne</w>
lo ss</w>
Bro k</w>
avanc ées</w>
C au
ev a</w>
refu se</w>
know s</w>
a des</w>
than king</w>
intég rée</w>
ent ôt</w>
wel com
welcom ed</w>
Re pres
ru rales</w>
ra dic
pill ar</w>
fiel ds</w>
prec ise</w>
Saf ety</w>
isra éli
capit ale</w>
appl ying</w>
g ent</w>
bas ée</w>
under taken</w>
larg est</w>
A S
pl a
hol m</w>
e ties</w>
bli n</w>
accoun ts</w>
5 5</w>
shad ow</w>
ni ers</w>
min es</w>
199 4</w>
par t-
par aît</w>
dépos és</w>
activ ely</w>
N i
un doubtedly</w>
innov ative</w>
comp ter</w>
3 00</w>
vis ite</w>
t enter</w>
al location</w>
Hungar ian</w>
étro itement</w>
ta ts</w>
set t
li ée</w>
in dem
p rag
dio x
avanc ée</w>
in al</w>
high est</w>
farm ing</w>
g érer</w>
ré agir</w>
fel t</w>
de z</w>
stu dies</w>
nav ig
indi que</w>
cl auses</w>
ss es</w>
on going</w>
cal cul
H ong
l ined</w>
S omm
Austri a</w>
ad resse</w>
parti tion</w>
cha î
ser t</w>
ab e</w>
h abil
p esti
condem n</w>
vis ent</w>
consid ering</w>
H ere</w>
y es</w>
secon de</w>
ren contr
dang ers</w>
b all</w>
semb l
s en</w>
peti te</w>
Du blin</w>
2007- 2013</w>
determin ed</w>
tent ative</w>
G é
évo quer</w>
electron ic</w>
capit aux</w>
ampl eur</w>
S K</w>
un ited</w>
mainta ining</w>
A T</w>
semb lent</w>
s on
l ati
com it
O ffice</w>
volu me</w>
b ar
NG L</w>
res ta
bi entôt</w>
év olu
bur g</w>
br ings</w>
affir me</w>
OS CE</w>
contra diction</w>
civi les</w>
believ es</w>
meill eurs</w>
mat ern
l d
fai r
a h
oblig atoire</w>
av ais</w>
sil ence</w>
ad ver
renforc ée</w>
men ées</w>
amend ed</w>
tex ts</w>
sub mit</w>
tes -
ré si
priv ée</w>
Georgi a</w>
J oh
Co operation</w>
di ca
sign ature</w>
aut our</w>
respec tive</w>
c ated</w>
ag ing</w>
S ans</w>
dépen d</w>
under stood</w>
sub se
vis ed</w>
signific antly</w>
on ing</w>
octro i</w>
deta ils</w>
réc ente</w>
rapport eure</w>
compa red</w>
infr ing
identi té</w>
He ads</w>
Con tro
c esse</w>
clai rs</w>
0 .
oper ating</w>
inv es
f rapp
Du tch</w>
éch é
mon ter</w>
per e</w>
ma ss</w>
illég ale</w>
go t</w>
abou tir</w>
sugg est</w>
behav i
ér ance</w>
sp here</w>
ressortiss ants</w>
high lighted</w>
considé ré</w>
conna ît</w>
an che</w>
k o
bri èvement</w>
Tam pere</w>
ri ère</w>
res ses</w>
met tant</w>
accessi ble</w>
tur ned</w>
ran te</w>
ex hau
dam ent
an es</w>
B ec
électri cité</w>
li ens</w>
fu els</w>
Per haps</w>
technolo gique</w>
den rées</w>
const ant</w>
con que</w>
b omb
B on
utilis ées</w>
continu ent</w>
voul oir</w>
travaill ent</w>
sustain ability</w>
In ternal</w>
ign or
3 2</w>
remar quer</w>
considé rons</w>
salu er</w>
is on</w>
un ity</w>
tâ ches</w>
lat ter</w>
electri city</w>
Proto col</w>
remar qu
parten aire</w>
consta te</w>
wor se</w>
inte gr
incom be</w>
in dé
ar ity</w>
s even</w>
materi al</w>
ish ing</w>
f ré
sug gestion</w>
ph ilos
T ch
équilib ré</w>
énor mes</w>
heu gen</w>
bâ ti
déta il</w>
Ver heugen</w>
N ig
pr ennent</w>
larg ely</w>
cer tes</w>
Sol ana</w>
pro pag
pos é</w>
ani an</w>
Sch ul
be ings</w>
abord é</w>
univers al</w>
or gie</w>
incor po
jeu di</w>
des sus</w>
con cré
socialis tes</w>
prév ues</w>
e duc
Com ité</w>
spé cial</w>
men ée</w>
intéress ant</w>
inv est</w>
at mo
urg ency</w>
formul ation</w>
anci ens</w>
satis fied</w>
hol ders</w>
Ex ternal</w>
pharmac eu
lead er</w>
fun ction</w>
ti g
fin ding</w>
britan niques</w>
erre urs</w>
Gu in
L ati
reconna ît</w>
Th en</w>
Autri che</w>
soli de</w>
prés ents</w>
const antly</w>
rou tes</w>
ins ist</w>
ge og
fi ées</w>
dé ficit</w>
answ ers</w>
accél érer</w>
ré sid
on a</w>
materi als</w>
k er</w>
indépend ants</w>
du ties</w>
b ons</w>
ai rement</w>
wh ol
sou h
ev ision</w>
equip ment</w>
L ast</w>
alis te</w>
G DP</w>
soci ation</w>
prot es
per dre</w>
Regi onal</w>
sel ec
per du</w>
inter médi
mo tions</w>
ré ussi
loc aux</w>
dépend ance</w>
préal able</w>
lear ning</w>
j un
heal th
ed ings</w>
Tib et</w>
rec ord</w>
p es
m iss
k i
précéd ente</w>
ent ral
behavi our</w>
negoti ation</w>
bli r</w>
1 ,
secon dly</w>
jur is
S pe
C el
vis ory</w>
ent end
Pour tant</w>
restructu ring</w>
a dul
succe ed</w>
reç o
li vre</w>
neighb ours</w>
déc enni
Gé orgie</w>
ac knowledge</w>
ti se</w>
follow s</w>
enf ant</w>
enta mer</w>
ass ist
identi ty</w>
dé rog
Stock holm</w>
regul ar</w>
manif est
Serbi e</w>
Lati n</w>
ré vis
qu it
contribu era</w>
tou che</w>
présent ation</w>
ex pan
advan tages</w>
Contro l</w>
ré serv
pri mor
primor di
Wh ite</w>
Dur ing</w>
Conse quently</w>
publi cité</w>
pow er
pa ge</w>
fic its</w>
att entes</w>
è tent</w>
G ran
C F
ré percussions</w>
19 7
pouv ait</w>
ep t</w>
ri ch</w>
interpré tation</w>
in ze</w>
propor tion
fix é</w>
ex ports</w>
d a
refl ète</w>
proce edings</w>
fru its</w>
fronti ère</w>
Con go</w>
opéra teurs</w>
consid ers</w>
autor isation</w>
EC U</w>
béné fices</w>
valu able</w>
po lon
h ands</w>
coop érer</w>
cent ral
prepar ation</w>
opti mis
cor ri
si onn
mauv ais</w>
do c
Qu &apos;</w>
ve -
un fair</w>
fi cial</w>
T V
z ens</w>
fac ts</w>
su it</w>
prison ers</w>
excep tions</w>
A re</w>
él év
trans f
li min
pre -
om bi
CO D</w>
ém er
ha z
Schul z</w>
anci en</w>
région aux</w>
ff s</w>
con duit</w>
appro xim
hu it</w>
cri ption</w>
pres sions</w>
pa n</w>
itu res</w>
is la
dio visu
Sub ject</w>
élimin er</w>
ur ba
pr ête</w>
ent end</w>
applic ations</w>
investig ation</w>
ins crit</w>
off ered</w>
horiz on
fa is</w>
expri me</w>
eng end
a -
politi cally</w>
né er
appropri ées</w>
No t</w>
enti ss
déc oul
Par t
attend ent</w>
tis ing</w>
aff ai
rec ru
Presid ents</w>
civ ils</w>
b ann
ra s
emb argo</w>
sou s
moy enne</w>
ex ic
n esse</w>
laun ched</w>
d ites</w>
contrac ts</w>
low ing</w>
de ficit</w>
ag issait</w>
institu tionnelle</w>
constitu te</w>
car s</w>
bur ants</w>
v ill
W all
L T</w>
Gre ens</w>
équilib rée</w>
re pose</w>
pass age</w>
k es
accep te</w>
rele ase</w>
es -
dou ani
premi ers</w>
ple ase</w>
conse il</w>
tour ner</w>
médi ateur</w>
cour ant</w>
iss ements</w>
affir mé</w>
B ra
to p</w>
ré duit</w>
cam ps</w>
rép éter</w>
pru dence</w>
mi d
lev ée</w>
Tran s
particip ants</w>
fe el
con forme</w>
centa ines</w>
F ron
oph ob
légi tim
wai ting</w>
- je</w>
hon our</w>
dynam ique</w>
de gré</w>
b ass
pri m
av es</w>
ass ent</w>
k ept</w>
TV A</w>
P IB</w>
E M
refer ring</w>
clari fication</w>
V AT</w>
G M</w>
perfec tly</w>
g ri
ad h
In don
ré partition</w>
con soli
compl et</w>
some what</w>
shor t
hol ding</w>
che f</w>
ba isse</w>
sup pose</w>
stric tes</w>
m eur
P i
Mo ro
C as
what ever</w>
resul ting</w>
est- ce</w>
vulnéra bles</w>
W est</w>
ç u</w>
tiv ity</w>
rev anche</w>
mark ed</w>
libéra ux</w>
et er</w>
com position</w>
pati ence</w>
ti fic
ou til</w>
regis tr
neighbour ing</w>
ess els</w>
cl and
ar d
sé v
exig er</w>
concent rate</w>
produc ing</w>
medic ines</w>
la red</w>
is ted</w>
compréhen sion</w>
at ly</w>
On ce</w>
suffici ently</w>
r ation
dispos al</w>
be l</w>
ac ting</w>
Pl an</w>
199 0</w>
propor tionn
l ist
dé ment</w>
C entre</w>
op s</w>
mouv ement</w>
en forcement</w>
bureau cra
Comm on</w>
As sociation</w>
N e</w>
reques ts</w>
mo bilisation</w>
Dé pu
rati fied</w>
couv rir</w>
v essels</w>
pesti cides</w>
particip é</w>
difficul ty</w>
Mol do
medi cal</w>
4 9</w>
us ers</w>
re sum
pos ent</w>
in sul
Mo re</w>
w ait</w>
cer titude</w>
Dé clar
happ ens</w>
genu in
G lob
suff er</w>
inter rom
e av
com pul
accor dée</w>
3 3</w>
ter re</w>
men é</w>
fun dament
dec lared</w>
mo de</w>
clai m</w>
er y</w>
déb ou
conven u</w>
prison niers</w>
primar y</w>
par ad
oc curr
bre ve
b anc
sin ki</w>
exemp tion</w>
en j
défin iti
Hel sinki</w>
G ra
3 6</w>
mil k</w>
ob serve</w>
multil ateral</w>
genuin ely</w>
h ne</w>
S w
te in</w>
pos t-
permet tront</w>
op ened</w>
décl are</w>
soulev é</w>
an -
Gali le
B ö
it ely</w>
signific ance</w>
Repres entative</w>
Don c</w>
C ulture</w>
transi tional</w>
s atell
form al</w>
au diovisu
P eu
cro ire</w>
compet ent</w>
pré voir</w>
man n</w>
Galile o</w>
D an
B l
sor y</w>
guarante eing</w>
dic ation</w>
ag isse</w>
ver ing</w>
Nor thern</w>
te z</w>
te en</w>
satis fais
rav i</w>
périph ériques</w>
proven ance</w>
K ur
lead s</w>
forê ts</w>
fav ourable</w>
dé sign
arm ée</w>
199 2</w>
den i
adv ance</w>
4 2</w>
signific ative</w>
prov ed</w>
pl aying</w>
end eav
Pol ish</w>
st ations</w>
prom p
p é
reser v
deb ated</w>
Th us</w>
N S</w>
y n
ter ai</w>
su red</w>
T ri
n omm
descri bed</w>
Ob jet</w>
Hungar y</w>
sor tir</w>
f ront</w>
dispos ent</w>
alim entation</w>
le -
indic ated</w>
Com p
pacifi que</w>
sti pul
ob li
fai bles</w>
re cu
g é</w>
ex pen
end rons</w>
conserv er</w>
chim iques</w>
accor de</w>
généra lement</w>
Fis ch
prog ress
fonctionn er</w>
deli ver</w>
d ons</w>
a .m.</w>
électroni que</w>
rég ler</w>
dé cou
distin c
d enti
b it</w>
accompl is</w>
man t
dé marche</w>
O l
straté giques</w>
gre atly</w>
dossi ers</w>
Part nership</w>
In stead</w>
mar ine</w>
esp érer</w>
wat ers</w>
réalis te</w>
rus se</w>
ren d</w>
re min
sa w</w>
discipl ine</w>
E gyp
inten sive</w>
concre ts</w>
3 8</w>
me at</w>
identi fied</w>
diminu tion</w>
Li thu
è vent</w>
continu era</w>
F I</w>
ur ban</w>
legi tim
deser ves</w>
ch os
parliam ent</w>
flu x</w>
un s</w>
so r</w>
fix és</w>
b ers</w>
apparti ent</w>
see ks</w>
mainta ined</w>
intern es</w>
I V</w>
trans formation</w>
k o</w>
fo rest
accue il</w>
un di</w>
ne w
H ome</w>
Euro -
ul ation</w>
geog raph
g auche</w>
fré qu
friend ly</w>
absolu te</w>
3 4</w>
un less</w>
stitu tion</w>
st em</w>
por ta
po o
liber al</w>
list en</w>
élec teurs</w>
sur vi
pou vez</w>
duc tions</w>
compr end</w>
plu ri
mi gra
inv it
dro gue</w>
S lo
wi der</w>
to m</w>
hist or
débatt ons</w>
car bon</w>
acti f</w>
a -t-elle</w>
Is lam
écr ites</w>
sus pec
judi ce</w>
donn ée</w>
dis tance</w>
ch ing</w>
péti tions</w>
time table</w>
sig ne</w>
concré tis
é co
tur ning</w>
rép ète</w>
pl ants</w>
gr ati
contra ts</w>
quot a</w>
end ront</w>
affec ts</w>
élév ision</w>
re port
pour suiv
identi fy</w>
identi fication</w>
handicap ées</w>
trouv ons</w>
th ly</w>
proven ant</w>
U N
4 3</w>
poo rest</w>
buil t</w>
arrê ter</w>
Peu t-
per te</w>
aut rement</w>
am is</w>
stoc k</w>
publi cation</w>
exig ence</w>
dé lic
discu té</w>
col oni
Fisch ler</w>
sh ap
compul sory</w>
comport ement</w>
S cot
ten ant</w>
mo reover</w>
mar ge</w>
ell ed</w>
conna issances</w>
chos en</w>
With out</w>
in ég
chois i</w>
ag ents</w>
care ful</w>
remerci ements</w>
in -
enjo y</w>
cho ose</w>
structurel les</w>
fl ag
N ational</w>
top ic</w>
ech es</w>
a sion</w>
reven u</w>
inf éri
v ille</w>
sugges ted</w>
pa roles</w>
démo graphi
y ed</w>
soci eties</w>
bi om
du quel</w>
Cor ée</w>
m p
destin é</w>
confir mer</w>
ad just
w an</w>
rais ing</w>
observ er</w>
harmon i
au rais</w>
so yons</w>
sal aires</w>
E P
Barcel ona</w>
territ oires</w>
a ître</w>
possi bilities</w>
impli cation</w>
spe eches</w>
pro long
expan sion</w>
et er
éta is</w>
tra gic</w>
ré un
c o</w>
Ru ral</w>
respec tent</w>
concr ète</w>
Hong rie</w>
see ing</w>
profon dément</w>
conduc ted</w>
won der</w>
unanim ously</w>
discu tons</w>
d or
Est -
Barcel one</w>
focu sed</w>
inf ec
res sort</w>
di v
point ment</w>
conna issons</w>
Est on
B ir
0 ,
com porte</w>
Ch an
è se</w>
sec tion</w>
écolo gique</w>
rédig é</w>
pré con
inter institutional</w>
gén ération</w>
conc essions</w>
appar aît</w>
ai der
Bec ause</w>
satis faire</w>
par avant</w>
is ons</w>
effectu é</w>
oblig ed</w>
en larg
suff ered</w>
re move</w>
Au thor
interpre tation</w>
ail y</w>
T A</w>
Col ombi
concep tion</w>
assass in
st ressed</w>
priv és</w>
is ting</w>
adap t</w>
Ko rea</w>
6 5</w>
prê t</w>
g rec
de -
Ja pan</w>
ré mun
g ene
rel ance</w>
pos ée</w>
e fully</w>
suscepti bles</w>
j e
is ations</w>
au dit</w>
euro -
compet ences</w>
ti endra</w>
sug ar</w>
Brit ain</w>
rejet é</w>
positi ves</w>
organ e</w>
Fe der
ser re</w>
âg ées</w>
re traite</w>
issu ed</w>
complet ed</w>
bre ak</w>
aff i
add ressing</w>
In v
s is</w>
compli cated</w>
uni fication</w>
k in
anti cip
pr ing</w>
indem n
honn eur</w>
aff ron
Gro w
ta b
pay ers</w>
indi quer</w>
enh ance</w>
distin gu
dev ient</w>
syst é
C iti
to ols</w>
sp ite</w>
nécess ite</w>
ld wide</w>
contribu ted</w>
Grow th</w>
re du
ri ches</w>
F our
lin ks</w>
correc tly</w>
ass ist</w>
M os
ign ent</w>
envis age</w>
tion ary</w>
th èmes</w>
su d</w>
fri ends</w>
diplom atic</w>
négoci er</w>
nation als</w>
m è
inspec tion</w>
fondam ent
al lu
insta r</w>
dre ds</w>
avo i
Ham as</w>
C 4-0
suffis ant</w>
ré side</w>
pe l</w>
après- midi</w>
H aving</w>
û t</w>
scand al
lati ne</w>
gn es</w>
after noon</w>
Tra ités</w>
opportu n</w>
contribu ables</w>
ab u
z i
stru gg
pul sion</w>
o i</w>
de pl
citiz en
re tagne</w>
immen se</w>
ém ission</w>
d aily</w>
clar té</w>
aéri ennes</w>
r oun
pr int
4 4</w>
écu s</w>
sur monter</w>
heu reuse</w>
ex u
el son</w>
chau ff
ad mis
Tun isi
z o
we alth</w>
i on</w>
wi d
rejet er</w>
g a</w>
d r
Au cu
légitim ité</w>
ci proc
a po
év it
ture rs</w>
ma ss
emphas ised</w>
G i
Fin land</w>
environnem ental</w>
acti fs</w>
affir m
sor ry</w>
n ou
me ts</w>
gn ess</w>
R a
F ol
cro y
ul téri
pu issance</w>
persu ad
manufac tu
in gness</w>
hel ped</w>
cent es</w>
Slo ven
ple ine</w>
W at
Min is
Budg etary</w>
présent és</w>
è les</w>
sy ner
pre viously</w>
de als</w>
tel evision</w>
e astern</w>
199 3</w>
will ingness</w>
ri gou
dés ast
incid ence</w>
exper tise</w>
appli quées</w>
spe cies</w>
minor ité</w>
futu rs</w>
car bone</w>
arm ed</w>
wel comes</w>
s ité</w>
ch airman</w>
all ég
Moldo va</w>
te x</w>
pl ant</w>
ext ending</w>
er ais</w>
3 9</w>
sta t</w>
laun ch</w>
in adequate</w>
fore most</w>
trans form
D anish</w>
C an</w>
t omb
dri ving</w>
N &apos;</w>
Ja pon</w>
au paravant</w>
ag i</w>
i k
her itage</w>
gre enh
demand ing</w>
u sion</w>
suspend ed</w>
représent ation</w>
increas es</w>
depend s</w>
dec l
wor ldwide</w>
par am
exprim ées</w>
con duire</w>
S im
titu des</w>
attemp ts</w>
accep tables</w>
success fully</w>
ne ws</w>
de p
clari fier</w>
su itable</w>
ographi c</w>
chois ir</w>
atta ques</w>
ti e</w>
souh ait</w>
professionn els</w>
justi fication</w>
de sign
ten sions</w>
preu ves</w>
il ing</w>
D en
pén ale</w>
ist ent</w>
initi ale</w>
formul ées</w>
C hi
ó n</w>
mi x
américa ine</w>
Soci alists</w>
engag és</w>
chal eureusement</w>
C ha
Belgi an</w>
st es</w>
imp ér
pos tes</w>
exten sive</w>
P al
te -
t élévision</w>
ré d
legitim acy</w>
satis fait</w>
dé g
J ac
Indu stry</w>
0 -
utilis ée</w>
menac es</w>
er aient</w>
con tain</w>
de pend</w>
con ce
D S</w>
w ine</w>
ann oncé</w>
al co
s aisir</w>
ré di
inter institutionnel</w>
health care</w>
govern ing</w>
anci enne</w>
élimin ation</w>
mo des</w>
m ach
Austri an</w>
regul ated</w>
ref ers</w>
chapit re</w>
Tou tes</w>
ti enne</w>
th -
i m</w>
ext re
di an</w>
alis és</w>
Parliam entary</w>
M M.</w>
multil atéra
greenh ouse</w>
espè ces</w>
Fron tex</w>
adver tising</w>
Jo int</w>
14 9</w>
prospec ts</w>
indépend ante</w>
dé montré</w>
A I
reli able</w>
législ ations</w>
phenomen on</w>
civil isation</w>
administr ations</w>
sexu elle</w>
necess arily</w>
j ette</w>
heal thy</w>
h aut
exist ant</w>
ad hé
G 20</w>
tri chi
fin ale</w>
dynam ic</w>
ci de</w>
au trichi
an o</w>
t ellement</w>
t elec
reti re</w>
geograph ical</w>
b ran
C ivi
vou d
play ers</w>
ga p</w>
un ic
enab ling</w>
Qu and</w>
sus pension</w>
pai gn
negoti ated</w>
défin itive</w>
bureaucrati e</w>
C NS</w>
suiv antes</w>
s pread</w>
imag ine</w>
h im
g am
dis ent</w>
Somm et</w>
re ta
pro of</w>
objec tions</w>
end ro
développ ements</w>
Fin lande</w>
sû reté</w>
radi cal</w>
mér itent</w>
mark eting</w>
isla ture</w>
cré e</w>
T our
repr endre</w>
neu tra
isl am
ins tamment</w>
Do es</w>
opportun ités</w>
car rying</w>
cam paign
trage dy</w>
répon du</w>
EC B</w>
rac isme</w>
impli quer</w>
ag er</w>
st -
av ère</w>
adéqu at</w>
catégori e</w>
H O</w>
Bo th</w>
vérit ables</w>
su sp
becom es</w>
él us</w>
to tal
thre ats</w>
précé demment</w>
illi r</w>
harm ful</w>
effectu er</w>
uni form</w>
respec ts</w>
reiter ate</w>
pré voy
Slov a
wor rying</w>
vice- président</w>
rapid ly</w>
in vo
im position</w>
Belgi um</w>
hear ing</w>
ess ence</w>
dura bilité</w>
re mettre</w>
premi èrement</w>
o x
e don
th ers</w>
territori ale</w>
lac unes</w>
d ite</w>
analy ses</w>
D ar
én u
sou thern</w>
l eng
til s</w>
quanti té</w>
palestini en</w>
la isse</w>
essenti ally</w>
difficul té</w>
vo itures</w>
pr oud</w>
intellectu al</w>
identi fier</w>
bénéfici ent</w>
b ol
Ti me</w>
suffis ante</w>
prati quement</w>
foot ball</w>
expéri ences</w>
Mad rid</w>
Citi zens</w>
Ch ech
suiv ants</w>
rec all</w>
dé tri
comb in
Euro stat</w>
4 6</w>
gran ting</w>
ei ght</w>
constitu tes</w>
convainc re</w>
augment é</w>
C a
u te</w>
li qui
hop es</w>
consac ré</w>
simpli fier</w>
multi pli
l ou
cur red</w>
considé rée</w>
bien venue</w>
anc ing</w>
reflec ted</w>
re voir</w>
applic ables</w>
tax payers</w>
t tes</w>
réguli èrement</w>
consider ably</w>
é clai
su sc
sensi bles</w>
re place</w>
olo giques</w>
engag ée</w>
der rière</w>
achiev ement</w>
N on</w>
Author ity</w>
tempora ire</w>
re tirer</w>
judici aires</w>
ival ent</w>
San ter</w>
E ver
4 1</w>
tra gé
scho ol</w>
pl af
présent ées</w>
proto col</w>
ét ch
ven te</w>
possi bly</w>
tan gible</w>
re jet</w>
per tes</w>
P N
Mac edon
Gran de
sol ely</w>
safe guar
procha ins</w>
pren ant</w>
Mos co
Ever y
fra gm
organ ise</w>
ic y
h ém
exclusi vement</w>
enn eté</w>
enn ess</w>
defin itely</w>
de liber
roo m</w>
garantiss ant</w>
emb ar
determin e</w>
cruci ale</w>
Liber al</w>
ss on</w>
remplac er</w>
oppos ite</w>
probl ématique</w>
mis take</w>
financ ed</w>
rest ore</w>
ne ar</w>
mo ine</w>
Bel gique</w>
ag ement</w>
D im
D anu
ni ght</w>
cor respond</w>
U E-
regar ded</w>
ou tils</w>
dep th</w>
cor ps</w>
b out</w>
ab sor
B CE</w>
ing ton</w>
gre en</w>
I II</w>
ér ences</w>
modi fied</w>
i rait</w>
gro s</w>
faci lities</w>
décl arer</w>
Slov ak
tiv ely</w>
détri ment</w>
citizen ship</w>
aspir ations</w>
S ak
pri or</w>
B ush</w>
Fre e
o red</w>
hun dreds</w>
dem eure</w>
co fin</w>
a sure</w>
se where</w>
poin ting</w>
exig e
K ong</w>
E D
Bur ma</w>
w ent</w>
tu de</w>
destin ée</w>
dange reuses</w>
accompli r</w>
ne l</w>
charg é</w>
ass emblée</w>
S IS</w>
schem es</w>
restructu ration</w>
cer a</w>
é coles</w>
oli d
cro issante</w>
vi endra</w>
p sy
op enness</w>
l ay</w>
inno ck</w>
encourag ed</w>
K innock</w>
inspec tions</w>
draf ting</w>
5 1</w>
ten ons</w>
appu yer</w>
S al
Civi l</w>
A5-0 0
é tions</w>
plan ète</w>
lim itation</w>
fra gi
allem and</w>
Grande -B
mass ac
foun ded</w>
ak is</w>
Un der</w>
Grande-B retagne</w>
lég ale</w>
f eu</w>
diff usion</w>
Bal tique</w>
ym pi
cher cher</w>
B ol
succe eded</w>
sk ills</w>
entraî ne</w>
do w
rappel é</w>
moder ne</w>
a part</w>
Peut- être</w>
o ise</w>
légi time</w>
instaur ation</w>
développ és</w>
det ri
d less</w>
œ uv
pur ch
in ev
volon taire</w>
main -
espagno le</w>
sc ène</w>
end ors
cour ts</w>
ré ta
off er
lim ité</w>
head ing</w>
ent ered</w>
Tour ism</w>
run ning</w>
quali fiée</w>
patri moine</w>
num bers</w>
im pres
h auteur</w>
pi è
lar s</w>
fourn iss
atte inte</w>
targ eted</w>
occid entaux</w>
ci bl
b en
mess ages</w>
ill ing</w>
extrê me</w>
citoy enneté</w>
chiff re</w>
prom ised</w>
privatis ation</w>
pa t
manufac turers</w>
ex ce
allem ande</w>
su édo
human ité</w>
ut most</w>
n a</w>
destin ation</w>
bénéfici aires</w>
v ements</w>
par tly</w>
g rés</w>
el sewhere</w>
doub ts</w>
dol lars</w>
cli matiques</w>
clar ity</w>
V al
B E
e- t-
di ed</w>
convaincu e</w>
s ch</w>
g ress</w>
confir mé</w>
a side</w>
Wh ere</w>
L ab
4 00</w>
élabor é</w>
l l
b s</w>
S olid
C re
exam ined</w>
appli quée</w>
I ts</w>
Danu be</w>
reconna issant</w>
pres enting</w>
pa ir</w>
navig ation</w>
indic ation</w>
im pe
him self</w>
décisi onn
we red</w>
Dépu tés</w>
t rem
qu inze</w>
appli quent</w>
T w
warm ly</w>
re action</w>
mar que</w>
domm ages</w>
accu s
limit ée</w>
exclu sive</w>
inter dire</w>
extre me</w>
Fol lowing</w>
201 5</w>
m ée</w>
t ête</w>
gg est</w>
différ ent</w>
cir cul
affec ting</w>
condam n
bi ggest</w>
viol ent</w>
minim ales</w>
consider ations</w>
trans mission</w>
pens ent</w>
isl and</w>
ess ed</w>
comm is</w>
ac tors</w>
pos te</w>
under line</w>
poss ède</w>
dé ri
v ague</w>
us er</w>
histor ical</w>
control led</w>
compr en
char te</w>
ac ted</w>
O C
reflec ts</w>
re ve
ple asure</w>
passeng er</w>
iter a</w>
environ ment
chang é</w>
W ill</w>
lic enci
fisc ales</w>
b re</w>
14 2</w>
renforc é</w>
jeu nesse</w>
télé communications</w>
pos tal</w>
om ali
enni um</w>
dru g</w>
thor ough</w>
suppl ementary</w>
st op
rempli r</w>
pora ted</w>
nu tri
desi rable</w>
clas si
Fra t
wor thy</w>
scho ols</w>
remarqu able</w>
nom ination</w>
add am</w>
qu atri
dec ades</w>
Re gar
Frat tini</w>
Fl or
v ac
shor t-
sav ings</w>
pr enne</w>
op hi
mic ro
a justement</w>
H on
tre aties</w>
su m</w>
re vised</w>
le çons</w>
entrepr endre</w>
bio diversité</w>
B SE</w>
relati vely</w>
mo tifs</w>
mer ci</w>
approfon die</w>
ap prendre</w>
fe ed</w>
T E
s lov
n -
l ever</w>
fran ch
de a
chec k</w>
w in
pou lo
negoti ate</w>
inc enti
icy cle</w>
d ations</w>
comb us
al coh
D is
pu rely</w>
inv iter</w>
en e</w>
Con serv
sû re</w>
las ting</w>
emp s</w>
dee ply</w>
cu ts</w>
aband on</w>
unil atéra
transpar ente</w>
intermédi aire</w>
incor porated</w>
ar ise</w>
w a
spécifi quement</w>
B as
mi lieu</w>
demand ent</w>
S addam</w>
ta bility</w>
lib ération</w>
ins cr
fortun ate</w>
com pon
bureaucra cy</w>
Le ft</w>
qu ons</w>
Mon ti</w>
Ma ro
é der</w>
reserv ations</w>
recomm ande</w>
import ation</w>
experien ced</w>
él u</w>
marg in
att ends</w>
somm e</w>
fall s</w>
commerci alisation</w>
c tions</w>
av ance</w>
at éral</w>
Fre e</w>
wor ding</w>
sé qui
quo te</w>
pré ven
ph ra
impli qués</w>
hy dro
absta ined</w>
ter ont</w>
nour r
incid ents</w>
in qu
der og
construc tif</w>
cons isten
comm ence</w>
6 7</w>
éch ou
symbo li
rac ism</w>
publi c
l ying</w>
jo int
disab led</w>
sta ke</w>
restric ted</w>
proc ès</w>
k il
8 5</w>
C ri
. -</w>
pu rement</w>
op tim
mobi le</w>
enh anced</w>
Tim or</w>
me ant</w>
endu ms</w>
appr entiss
Slovak ia</w>
voud rions</w>
part- session</w>
intég ré</w>
dé séqui
Y or
0 s</w>
et c</w>
dispos iti
atten tivement</w>
Bl air</w>
repres entation</w>
c ensure</w>
E ri
sub jects</w>
ir y</w>
declar ations</w>
contribu ent</w>
Ac t</w>
v ité</w>
si ght</w>
pr ouve</w>
gouvernem entales</w>
étudi ants</w>
trans it
én aire</w>
sou mise</w>
rem ment</w>
l é</w>
bo v
t- ils</w>
t oni
per s</w>
na turel</w>
interven e</w>
cra ins</w>
W e
H au
ti ge</w>
ref us</w>
pén al</w>
is tics</w>
diver g
dro gues</w>
coordonn er</w>
étudi er</w>
ré ductions</w>
atta que</w>
ag no
s che
pri me</w>
net tement</w>
n ement</w>
i gh
W ritten</w>
E L
pré fé
inform é</w>
bio diversity</w>
tak ings</w>
soul ever</w>
pron oncer</w>
intéri eure</w>
in struc
fair ly</w>
ad vice</w>
print emps</w>
poli ci
m ans</w>
ig ne</w>
Mac édo
streng th</w>
ma ssi
j an</w>
encourag ement</w>
clai ms</w>
F ri
re form
li ons</w>
illu st
consta té</w>
Au tor
pr endra</w>
credi ble</w>
Macédo ine</w>
ré els</w>
publi é</w>
buil dings</w>
Le ban
st ance</w>
sauve garde</w>
remain ing</w>
power ful</w>
Slova quie</w>
un necessary</w>
th res
explan ation</w>
dé mi
c ard</w>
app eler</w>
é rée</w>
restric tive</w>
fi re</w>
f e</w>
et -
apprentiss age</w>
ES B</w>
te ach
parta geons</w>
faci lement</w>
al le
Y es</w>
wor st</w>
caractér istiques</w>
réglem entaire</w>
omm unic
elimin ate</w>
deven u</w>
cre ates</w>
accord é</w>
port é</w>
forc ing</w>
ali gn
ré it
présent ent</w>
l à-
aéro ports</w>
ari o</w>
véri fier</w>
resum ed</w>
octro y
élar gie</w>
fonc tions</w>
déb at
coura g
Qu i</w>
simil aires</w>
0 1</w>
under takings</w>
ten te</w>
qu era</w>
p eur</w>
employ ers</w>
elec toral</w>
Inv est
z en</w>
ra id</w>
correc te</w>
C 6-0
rec ettes</w>
deser ve</w>
sav ent</w>
cô tés</w>
appréci e</w>
Ser vice</w>
S on</w>
v on</w>
souha itable</w>
pa ying</w>
exclu ded</w>
dispu te</w>
Moro cco</w>
Cha que</w>
étran ger</w>
incid ent</w>
entrepren eurs</w>
dé montre</w>
dra w
conna issent</w>
Sta tu
R ob
su rely</w>
post pon
port ent</w>
ari a</w>
simul tan
s ais
excep tional</w>
discrimin ations</w>
con nex
R oth
F erre
rein force</w>
loo ked</w>
Gu an
transatlanti c</w>
cou vre</w>
congratul ating</w>
tri ce</w>
scru tin
repr is</w>
rem édi
impos ent</w>
en v
4 7</w>
étrang ers</w>
préc au
en ce
breve ts</w>
américa ins</w>
abor de</w>
Maro c</w>
évi d
s ave</w>
in ti
draf ted</w>
arch it
A fin</w>
élo ign
fai bl
Aff aires</w>
voul ais</w>
obta ined</w>
incenti ves</w>
f an
decl are</w>
S P</w>
proc essing</w>
os exu
op ération</w>
O GM</w>
z z
secon d
i ra
heav y</w>
Sy ri
Palestini ens</w>
9 2</w>
élev ées</w>
sche du
occurr ence</w>
l ai
expos é</w>
catég ories</w>
établ issant</w>
é rés</w>
whe reby</w>
nég atif</w>
explo iter</w>
chaî ne</w>
accu mul
I G
preser ve</w>
excu se</w>
every body</w>
dro ite</w>
Mar tin</w>
on e-
joint ly</w>
b ank</w>
grati tude</w>
S h
ro v</w>
prepar ations</w>
jou ent</w>
expres sing</w>
al it
am end</w>
D G</w>
sh aring</w>
inv itation</w>
foun dations</w>
er a
easi ly</w>
e able</w>
de ep
Autor ité</w>
pi ece</w>
mi li
considé rations</w>
co as
appel é</w>
régu lar
perman ente</w>
garanti t</w>
espagno l</w>
complain ts</w>
eu ille</w>
broad er</w>
Macedon ia</w>
pro secu
ex -
b on
ti er</w>
ma le</w>
justi fier</w>
ir landaise</w>
ell es
Lithu ania</w>
oubli ons</w>
extr a</w>
dé n
bil an</w>
Par is</w>
stre am
s wi
particuli ers</w>
indé pendant</w>
considé rant</w>
prom ise</w>
X X
5 6</w>
re trait</w>
pen cher</w>
ordin ary</w>
candid at</w>
pren ons</w>
all ing</w>
suédo ise</w>
ma p</w>
appli qué</w>
sus pen
consequ ence</w>
com pe
absolu e</w>
U EN</w>
Gen eva</w>
1 50</w>
stimul er</w>
pi ra
dé faut</w>
C le
remo ved</w>
extraordin aire</w>
alis é</w>
RE AC
REAC H</w>
rel ate</w>
pri e</w>
per secu
m én
fer me
com ings</w>
ch és</w>
bre f</w>
auth or</w>
H ar
Gen ève</w>
é dois</w>
v ast</w>
ré centes</w>
ren contre</w>
pl ain
hon est</w>
félicit ations</w>
depend ence</w>
T el</w>
Den mark</w>
équ it
sup posed</w>
occup er</w>
ci t</w>
P C
re tain</w>
je op
engag é</w>
L itu
transfrontali ère</w>
sou ght</w>
refus er</w>
profon de</w>
im port</w>
culturel les</w>
b arb
z ing</w>
s ée</w>
af raid</w>
J ust</w>
portu ga
mé dec
archit ec
air lines</w>
Ch il
Bol kes
sum mer</w>
réc ents</w>
mondi aux</w>
main- d&apos;</w>
intellectu elle</w>
e ds</w>
e .</w>
di agno
coun ter</w>
politi quement</w>
Bolkes tein</w>
short comings</w>
justi fy</w>
in utile</w>
n era</w>
feel ing</w>
annex e</w>
Y ou
Co ton
where as</w>
view ed</w>
resul ted</w>
regul ate</w>
entraî ner</w>
con i</w>
v ices</w>
tion ally</w>
h it</w>
enn a</w>
ç a</w>
u ms</w>
suc re</w>
sin ce
sh r
sh ares</w>
pl ai
journ alistes</w>
jour d</w>
import antly</w>
e b
co vers</w>
Bra z
s pend</w>
pro vis
manifes tement</w>
h os
f loo
Coton ou</w>
indic ateurs</w>
immédi ate</w>
alis ing</w>
adhé rer</w>
répon d</w>
ou red</w>
inform és</w>
ex tern
campa gnes</w>
Bar nier</w>
rem bour
prior itaires</w>
ne x</w>
l ar</w>
em ark</w>
Dan emark</w>
wee k
supéri eur</w>
dé lib
Qu elle</w>
Ob jec
humanit aires</w>
enqu êtes</w>
candid ates</w>
adéqu ates</w>
Atlanti c</w>
ter i
s- mêmes</w>
in ond
i .
Pe ti
Ara b</w>
less ons</w>
I C
signi fi
renfor ce</w>
satell ite</w>
oppos és</w>
i. e.</w>
défin i</w>
back ground</w>
Gr âce</w>
sur pr
re ur</w>
igno rer</w>
fun ded</w>
coordin ate</w>
a qu
lib rement</w>
al leg
Sa har
O ver</w>
E qu
Dec lar
souha ité</w>
ra ce</w>
pati ent</w>
cu re</w>
A P
tribun al</w>
seu il</w>
mo teur</w>
hom osexu
h ér
gag ner</w>
f il</w>
ent h</w>
simpli fy</w>
dis t
contro vers
é man
dé pass
cul tiv
bilatéra ux</w>
CE E</w>
ommunic ations</w>
incl us</w>
géné ral
demonstra tes</w>
Palestini ans</w>
wit n
tr ouver
re b
ma î
bureaucrati c</w>
ad mettre</w>
ré pression</w>
restric tion</w>
d il
S ev
E EC</w>
indic ators</w>
four ni</w>
fau te</w>
culturel s</w>
M ul
p p
n ul
at edly</w>
ar rest</w>
surpr ised</w>
i ting</w>
ex cl
gén érations</w>
dé pens
W ash
Ser vices</w>
it- elle</w>
fon dé</w>
Yu goslav
Par ti</w>
sur prise</w>
homm age</w>
fo rest</w>
coher ence</w>
éti que</w>
ven us</w>
texti les</w>
recomm end</w>
re d
program mation</w>
pa tent</w>
méditerrané enne</w>
dicta tor
congratul ations</w>
cir cons
prév us</w>
plani fication</w>
i lities</w>
collec te</w>
boo st</w>
al liance</w>
Yugoslav ia</w>
Invest ment</w>
E A
some one</w>
f ence</w>
econom ically</w>
cra ft</w>
continu ation</w>
connec ted</w>
aci o</w>
z u
prospec t</w>
inst ances</w>
in i</w>
hém icycle</w>
e si
dé ration</w>
di rais</w>
compani ed</w>
am bass
Yor k</w>
th i
privil égi
mean ing</w>
incor por
be ef</w>
ac companied</w>
t ative</w>
sû rs</w>
prec au
consci ent</w>
réta blir</w>
pres entation</w>
nom in
n et</w>
fru ctu
coll aborer</w>
G M
res sion</w>
ne arly</w>
dead line</w>
Egyp t</w>
tack ling</w>
pr an
Wash ington</w>
électo rale</w>
v end
tribu te</w>
n ord</w>
dou tes</w>
condem ned</w>
ali tion</w>
agre es</w>
plac ing</w>
parta ger</w>
inég alités</w>
e ken</w>
dig ital</w>
P lu
Bir manie</w>
re courir</w>
pla intes</w>
listen ed</w>
lic ences</w>
compar able</w>
bâti ments</w>
remédi er</w>
quatri ème</w>
educ ational</w>
dem ographic</w>
concep ts</w>
t ens</w>
or ous</w>
itali en</w>
a ins</w>
Declar ation</w>
uni ver
protec tionn
propos ons</w>
législ atifs</w>
in sufficient</w>
impli quant</w>
exac er
consoli der</w>
ei gh
S eu
su pran
ru bri
el t</w>
décenni es</w>
be aring</w>
Mon t
démocrati sation</w>
civili an</w>
bel ge</w>
î les</w>
ve ille</w>
si e</w>
out standing</w>
au d</w>
Ou i</w>
tur b
progressi vement</w>
gra de</w>
ex pense</w>
coun t</w>
co di
Qu elles</w>
show ing</w>
N on
Islam ic</w>
écou ter</w>
stu dents</w>
ry th
ob od
a j
Sw obod
É gyp
h ou
fisc alité</w>
fer ont</w>
cons enti
Swobod a</w>
Mi ch
territori es</w>
sim ples</w>
eth ical</w>
es sor</w>
cons tamment</w>
sett lement</w>
fle et</w>
examin é</w>
cu r</w>
terroris ts</w>
tent é</w>
sou ci</w>
r ating</w>
li re</w>
ar my</w>
Mer co
we ight</w>
régu lation</w>
loy ale</w>
im parti
excell ence</w>
W al
Qu oi</w>
Ira q
en thou
cho ices</w>
autonom ie</w>
ad ing</w>
Merco sur</w>
y prio
sta y</w>
siè ge</w>
since rely</w>
précéd ents</w>
c ab
redu n
ra ted</w>
pos ées</w>
inform al</w>
ei j
Peti tions</w>
Litu anie</w>
équi pe</w>
det eri
del ays</w>
voy ons</w>
rest re
bel ow</w>
ar c
salari és</w>
Bosni a</w>
transfrontali ers</w>
spéci alement</w>
penal ties</w>
harmon ised</w>
fa ill
ar mement</w>
as ing</w>
Secon d</w>
prom ises</w>
lab el</w>
is sion
crimin els</w>
ber g</w>
harmon iser</w>
et tering</w>
acc éder</w>
réglem ent
lo sses</w>
emp ha
comm it</w>
Po ettering</w>
z y</w>
qu alit
physi cal</w>
c ement</w>
a p</w>
You goslav
Pal acio</w>
Alb ania</w>
équip ements</w>
with draw</w>
we ak</w>
tragé die</w>
res p
repe atedly</w>
pers écu
lib éral</w>
inst al
flo tte</w>
contamin ation</w>
compéti tive</w>
quel qu&apos;</w>
ch ant</w>
La eken</w>
5 2</w>
2 ,
y outh</w>
undermin e</w>
sove reign</w>
ret ards</w>
respec ting</w>
déf end
b rè
ins pi
f low
extraordin ary</w>
Yougoslav ie</w>
Par allèlement</w>
su me</w>
expl ained</w>
accro issement</w>
H us
ô ts</w>
souti ennent</w>
procu rement</w>
log ical</w>
infra ction</w>
ad mission</w>
ér ons</w>
pu ts</w>
milli ard</w>
feder al</w>
déploy és</w>
dé loc
condam ner</w>
M or
respec té</w>
pré texte</w>
protec tion
ex act</w>
der ing</w>
applic ant</w>
In formation</w>
r enta
E ducation</w>
ter most</w>
secré taire</w>
rem pl
nég li
indispens ables</w>
S ingle</w>
un certainty</w>
respec tu
di c</w>
ri gi
ra w</w>
prom esses</w>
Tch étch
satisfais ante</w>
pouv ant</w>
peri ods</w>
impos ées</w>
commun iste</w>
car te</w>
touch és</w>
reg ister</w>
ra ises</w>
di r</w>
consisten cy</w>
élarg ir</w>
produ isent</w>
sta ke
souff rent</w>
non- discrimination</w>
em ed</w>
compét entes</w>
I M
5 7</w>
sa ke</w>
pl ays</w>
So vi
viend rait</w>
prom is</w>
ou termost</w>
evid ent</w>
annivers aire</w>
ang le</w>
AI DS</w>
Ob viously</w>
wi des
al ar
ins ist
usu al</w>
tra vers
macro -
ey e</w>
air ports</w>
admis sible</w>
N or</w>
un employed</w>
sur roun
polon ais</w>
m oun
direc ts</w>
d a</w>
ar isation</w>
Lab our</w>
C at
wides pread</w>
indic ations</w>
fores ts</w>
el er
demand eurs</w>
vo ies</w>
représent er</w>
Co hesion</w>
ven ons</w>
péri odes</w>
pursu ant</w>
IG C</w>
Eu ra
ent- ils</w>
confir me</w>
ving t</w>
tr end</w>
sta n</w>
sh oc
m its</w>
journ alists</w>
op en
man dat
li fer
fir ms</w>
demon str
ch ons</w>
bene ficial</w>
7 1</w>
ultra périphériques</w>
tra ck</w>
high lights</w>
telec ommunications</w>
suscepti ble</w>
ni e</w>
recher ches</w>
o rale</w>
industri els</w>
in ary</w>
assur ances</w>
Cer tes</w>
vi vant</w>
reser ve</w>
pro lif
maj eurs</w>
indic ate</w>
h ence</w>
Jus qu&apos;</w>
sm aller</w>
exploit ations</w>
dé bu
def ending</w>
under take</w>
souten ue</w>
sign ing</w>
dea ths</w>
ban king</w>
éth ique</w>
unanim ous</w>
inter governmental</w>
hol ds</w>
f assent</w>
envoy é</w>
enlarg ed</w>
cou ple</w>
consac rer</w>
ap parten
Nig eria</w>
Chech n
tal ked</w>
sum mar
h ous
exhau s
el der
devi enne</w>
deven ue</w>
cher che</w>
A zer
thir d-
offici elle</w>
necess ity</w>
modi fié</w>
iss on</w>
complex es</w>
gradu ally</w>
employ és</w>
Cle arly</w>
éri e</w>
é p
tri al</w>
categ ory</w>
accue ill
Chechn ya</w>
2 1
res h</w>
di vis
conform ité</w>
D R</w>
sub sid
re ront</w>
ent ement</w>
d eur</w>
Cam bo
primordi al</w>
no ti
mouv ements</w>
i j
defin ing</w>
ar ising</w>
Solid arity</w>
r ité</w>
approxim ately</w>
trans mettre</w>
su édois</w>
réc ent</w>
co alition</w>
â ts</w>
ti quement</w>
ph o
itali enne</w>
fer ons</w>
du rables</w>
st a</w>
s tic
onn é</w>
Non etheless</w>
rass embl
fre ely</w>
ev entu
comb ined</w>
collec tion</w>
chec ks</w>
c inqui
c ents</w>
uni ons</w>
to -
séri euse</w>
pas se
minis ter</w>
du ral</w>
cland esti
T elle</w>
De fence</w>
expli que</w>
employ eurs</w>
bénéfi ce</w>
ve to</w>
au jourd</w>
anim ale</w>
a ro
Est- ce</w>
Ar c
tu ra</w>
h s</w>
en ver
Hus sein</w>
H ong</w>
Am érica
sta ges</w>
dég âts</w>
conse ils</w>
ér o</w>
concr ètement</w>
Li ke</w>
C ar</w>
crit ère</w>
complém entaire</w>
neighbour hood</w>
inqui ète</w>
ha rov</w>
débatt u</w>
w age</w>
suppli es</w>
ro ads</w>
per mit</w>
pac k
lég islature</w>
ey es</w>
de red</w>
conclu des</w>
bas é</w>
Regar ding</w>
M s</w>
utilis ateurs</w>
regis tre</w>
pris ons</w>
ophob ia</w>
an i</w>
al arm
H a
m ill
gen res</w>
concl us</w>
Déclar ations</w>
t ten</w>
roo ts</w>
priv ées</w>
li ability</w>
fourn iture</w>
en rich
disponi ble</w>
Par mi</w>
m em
consul ted</w>
b it
Égyp te</w>
rati fié</w>
modi fiant</w>
emerg ing</w>
aut eurs</w>
terroris te</w>
lanc ement</w>
elder ly</w>
ec ological</w>
ac tives</w>
shor tly</w>
cer tification</w>
Plu sieurs</w>
généra ux</w>
cau sing</w>
Comp te</w>
tw ent
tribun aux</w>
mon étaires</w>
dé favor
Budg et</w>
5 3</w>
él as</w>
prolif ération</w>
défin is</w>
atmo sph
no tably</w>
cro issant</w>
ap pris</w>
Sak harov</w>
B rési
ten ues</w>
stu ffs</w>
s ligh
non etheless</w>
lifer ation</w>
eth nique</w>
deuxi èmement</w>
ad mit</w>
G ol
EC HO</w>
6 8</w>
évén ement</w>
tim ely</w>
préc ises</w>
l t</w>
h am
dé gra
ag grav
par all
off ering</w>
observ ateurs</w>
ic als</w>
fourn it</w>
dé mant
diver sification</w>
a issent</w>
établi t</w>
nou s-mêmes</w>
mor ts</w>
gener ations</w>
expli cation</w>
A5-0 3
war ning</w>
mariti mes</w>
coll ap
k illed</w>
divi ded</w>
palestini enne</w>
beli ef</w>
beg an</w>
Alb anie</w>
oppos é</w>
mod alités</w>
le aving</w>
hypo th
fisc aux</w>
b attle</w>
Po ss
intég rité</w>
er -
bene fici
Tunisi a</w>
5 8</w>
ver i
un fortunate</w>
ob ser
mi -
individu els</w>
immi grés</w>
W ar</w>
9 3</w>
trans -European</w>
repe ated</w>
rejo indre</w>
mor t
Brési l</w>
América ins</w>
rapproch er</w>
Na tura</w>
mod èles</w>
ins isté</w>
am a</w>
Poss elt</w>
P ES
stri ke</w>
so vi
requi ert</w>
ext ré
author isation</w>
ME DA</w>
é no
vo terons</w>
direc teur</w>
Tou te</w>
x -
ve y</w>
rejec tion</w>
hous ing</w>
ferme ture</w>
empê che</w>
contribu ting</w>
rail way</w>
personn elles</w>
n º</w>
di z
anc er</w>
acc r
M au
tent atives</w>
re jette</w>
pré judice</w>
fragi le</w>
I ran
tro ops</w>
particuli ères</w>
out set</w>
oppos er</w>
allu sion</w>
5 4</w>
éventu elle</w>
spéci ale</w>
ris ing</w>
por no
direc ted</w>
ch ain</w>
as sou
appel ons</w>
F er
res sive</w>
recu e
ins pir
in capable</w>
de ep</w>
b us</w>
W ed
quel conque</w>
hypo cr
Wed nes
Statu te</w>
H ol
viol ences</w>
clas sification</w>
cess er</w>
bec ame</w>
BE I</w>
v in</w>
tw o-
observ ed</w>
intensi fier</w>
écr ite</w>
témo ign
re act</w>
b ound</w>
Mu g
L at
v ues</w>
utilis ent</w>
sev ere</w>
pre dic
portuga ise</w>
neu f</w>
exclusi vely</w>
effici ently</w>
dica ts</w>
For um</w>
univer sel</w>
syn dicats</w>
mont ants</w>
eth niques</w>
donn ent</w>
coordonn ée</w>
Wednes day</w>
Tchétch énie</w>
tra du
promo ted</w>
oc curred</w>
manifest ations</w>
dimen sions</w>
rés istance</w>
integr ity</w>
engag ed</w>
cre di</w>
compréhen sible</w>
clo sure</w>
E very</w>
utilis ant</w>
individu s</w>
fi es</w>
demand ant</w>
ain ing</w>
M exic
Eura tom</w>
E IB</w>
B lo
shap e</w>
ser ai</w>
bure au</w>
CI G</w>
institu tionnelles</w>
sign er</w>
re conci
en shr
e go
Mug abe</w>
vie ill
sugg ère</w>
st ation</w>
précau tion</w>
M ilos
0 2
écou té</w>
transatlanti que</w>
résol u</w>
lo ans</w>
larg er</w>
concre t</w>
Y our</w>
é duc
x éno
mis si
im per
ex empl
campaign s</w>
associ er</w>
é pi
st ed</w>
lo cale</w>
intellig ent</w>
gent es</w>
ev ic</w>
all ant</w>
Al low</w>
p ush</w>
kin ds</w>
it arian</w>
inond ations</w>
fa ith</w>
disap pointed</w>
beg un</w>
E T</w>
receiv ing</w>
fal lait</w>
f resh</w>
do ter</w>
Y ear</w>
alcoh ol</w>
stand ardis
respec tés</w>
re conciliation</w>
nu es</w>
géographi que</w>
confi denti
E G
s pring</w>
s ending</w>
ro l
integra te</w>
dé tention</w>
convaincu s</w>
The ir</w>
Mol d
trav aille</w>
follow -up</w>
délég ations</w>
contro versi
Sovi et</w>
télé ph
ques tion
psy ch
intol er
haut ement</w>
défen s
counter fe
cl ean</w>
phra se</w>
ow ski</w>
cle arer</w>
autor iser</w>
B re
9 1</w>
expen sive</w>
four th</w>
bel ong</w>
att énu
Mich el</w>
u ph
mar ks</w>
fre quently</w>
fabri c
versi ties</w>
pr un
géné tiquement</w>
for tes</w>
détaill ée</w>
contrac t</w>
Tw o</w>
Milos evic</w>
Lond on</w>
reven ue</w>
rati fy</w>
per mette</w>
ma r</w>
alco ol</w>
Eri ka</w>
á n
sur veiller</w>
sin cer
s por
rapproch ement</w>
ph ob
dé liv
con nues</w>
T ech
ti gh
ar t
Braz il</w>
éc oul
util ise</w>
under taking</w>
tur c</w>
technolo giques</w>
t euse</w>
sol ved</w>
sm all
pour ra
instal lation</w>
en thu
Mo st</w>
rencontr é</w>
regar dless</w>
fi le</w>
experien cing</w>
ev i
alle l</w>
Cri min
vi es</w>
stake holders</w>
fo ssi
fic tifs</w>
dis cre
contra intes</w>
character istics</w>
Euro- Mediterranean</w>
électroni ques</w>
é par
wid ely</w>
trou pes</w>
te am</w>
sti pu
pres cri
num érique</w>
n ish</w>
distribu ted</w>
ans wered</w>
Sim il
R el
sé ment</w>
M es</w>
xi ème</w>
s ports</w>
mu sul
entraî né</w>
cam p</w>
ass isté</w>
ab at
a pa
Pu is
P res
An y</w>
reço ivent</w>
investiss eurs</w>
appe ared</w>
Dé mo
sou mises</w>
routi er</w>
basi cally</w>
Ch airman</w>
tionn er</w>
strugg le</w>
re affir
p el
hel p
Tun isie</w>
viend rons</w>
per ç
i vie</w>
S he</w>
ri ed</w>
ob s
n one</w>
figu rent</w>
co vering</w>
bre v
av ie</w>
analys er</w>
J e
ta il</w>
em ission</w>
EL DR</w>
travaill ons</w>
nécess airement</w>
fe wer</w>
favo rablement</w>
ev oir</w>
aéri ens</w>
report ed</w>
pursu ed</w>
pa ssi
enthu sias
emb ry
ter res</w>
présent ant</w>
h n</w>
em an
éten due</w>
f érer</w>
arriv ée</w>
ar a</w>
profon deur</w>
on- cadre</w>
fores e
fi able</w>
f ast</w>
diverg ences</w>
ér ant</w>
diver si
deleg ations</w>
ag u
Eu ro</w>
En gl
proce dural</w>
oc ar
multi -
m ène</w>
do or</w>
contrac tu
Qu el</w>
signific atif</w>
seu les</w>
flow s</w>
fi ables</w>
cinqui ème</w>
air craft</w>
accue illir</w>
judg ment</w>
iv ed</w>
dra s
requ is
ne y</w>
n is
iss ants</w>
encoura geant</w>
d ated</w>
concurr enti
annivers ary</w>
5 9</w>
reflec tion</w>
draf t
américa ines</w>
P le
N u
én ég
personn elle</w>
par tant</w>
innov ations</w>
fourniss eurs</w>
chem ical</w>
sub jec
pour centage</w>
f ro
Sec ret
dégag er</w>
contraign ant</w>
consequ ently</w>
sympa th
limin ary</w>
hongro ise</w>
défin ies</w>
conjo int
complém entaires</w>
with draw
di rai</w>
6 3</w>
jeop ardis
entrepr is</w>
em prun
Dem ocrati
D eux</w>
sé jour</w>
met tons</w>
ir ani
bi ocar
S m
Indon esi
6 6</w>
se i
pron onc
par allel</w>
mentionn és</w>
essay é</w>
dé téri
contra irement</w>
categ ories</w>
approuv ée</w>
ag ed</w>
A5-0 2
st one</w>
pi liers</w>
nu it</w>
cro yons</w>
con ç
al ong
199 1</w>
rend ent</w>
rel èvent</w>
nég lig
multination ales</w>
manag ing</w>
confron tée</w>
V el
éch elon</w>
è tres</w>
ser ais</w>
pro stitution</w>
medi um</w>
environment ally</w>
comm entaire</w>
along side</w>
Commun ist</w>
stric tly</w>
objec tion</w>
journ ée</w>
conjoint ement</w>
clandesti ne</w>
univers ités</w>
sal aire</w>
peti tion</w>
assess ments</w>
6 2</w>
ish ment</w>
W ell</w>
recogn ises</w>
légi times</w>
ira ki
go tten</w>
fri end</w>
dev aient</w>
coas tal</w>
bénéfici e</w>
ang la
a ks</w>
Crimin al</w>
exprim ée</w>
controversi al</w>
t eux</w>
ref used</w>
prev ented</w>
compr ennent</w>
particip ating</w>
incen dies</w>
bal ances</w>
Americ ans</w>
simil aire</w>
p al
li ère</w>
c ach
b éta
ti ve-
ré former</w>
per centage</w>
dépend ent</w>
s ts</w>
obser vers</w>
ma intes</w>
ho sp
g ne</w>
Su dan</w>
A T
threat ened</w>
signal é</w>
fu r</w>
Wat son</w>
vehic le</w>
parven u</w>
am i</w>
accus ations</w>
omb re</w>
no ise</w>
lon gues</w>
investig ations</w>
in cin
f euille</w>
b ai
Dec ision</w>
whol e
whole hear
tol érance</w>
sub stitu
pouv ons-nous</w>
correspon d
co existence</w>
affron ter</w>
regular ly</w>
prohi bi
oblig atoires</w>
mic ro-
g ais</w>
en tion</w>
compl éter</w>
impos ing</w>
exper t</w>
esti mé</w>
con stra
Mon day</w>
voy ag
sol d
mati quement</w>
constitu tionnelles</w>
at ro
al in
tot alité</w>
so ign
ori ental</w>
help ful</w>
for gotten</w>
d ates</w>
augm ente</w>
rus ses</w>
mandat ory</w>
infring ement</w>
h ec
envisag ed</w>
dis agree</w>
di ons</w>
comprom ises</w>
9 4</w>
évalu ations</w>
sec tori
rop s</w>
pr ends</w>
pic ture</w>
ord ed</w>
occu r</w>
manifes te</w>
g ol
direc tive-
Fin nish</w>
system atic</w>
salu ons</w>
le ts</w>
formu le</w>
compéten te</w>
chin ois</w>
Leban on</w>
uni versities</w>
sec tions</w>
professionn elles</w>
om é</w>
Mus li
Mal ta</w>
unanim ity</w>
pre liminary</w>
horizon tal</w>
combus ti
P é
P en
Liber als</w>
E ra
pre sident</w>
o di
mi d-
impli quées</w>
al ed</w>
Mé di
équit ables</w>
resid ence</w>
ques -
min ent</w>
g ust</w>
conten ues</w>
Wall ström</w>
B or
x en
trans européens</w>
profes sions</w>
par allèlement</w>
ora bles</w>
mer credi</w>
in gu
ex hor
ac teur</w>
E cofin</w>
Al so</w>
î le</w>
voy age</w>
t ariat</w>
refus é</w>
rati onn
program ming</w>
pre fer</w>
im passe</w>
dri vers</w>
Iraq i</w>
Democrati c</w>
Col l
ro b
re me
infra ctions</w>
fond ement</w>
b ord</w>
G 8</w>
néer landais</w>
an en</w>
3 .
mo ved</w>
jo ined</w>
déc entral
devi ennent</w>
1 2
sem es
pu tation</w>
over -
nég atifs</w>
li a</w>
inten se</w>
im péri
cor po
annu els</w>
Euro just</w>
Era sm
restric t</w>
p tions</w>
ju ge</w>
d ité</w>
Mill ennium</w>
él or
vo i</w>
trans former</w>
inv ited</w>
impe tus</w>
expli cations</w>
cé ré
Mold avie</w>
H ence</w>
ro s</w>
safeguar ding</w>
po issons</w>
in habitants</w>
chem icals</w>
chap ter</w>
ari ats</w>
0 5</w>
urg ente</w>
thres hold</w>
soli d</w>
re placed</w>
off rent</w>
o le</w>
justi fie</w>
touch ées</w>
structurel le</w>
short- term</w>
gh ly</w>
app els</w>
V ene
M and
estim ated</w>
dépl o
consist ant</w>
aut -
appar ent</w>
Erasm us</w>
so il</w>
religi euses</w>
jo ining</w>
Médi ateur</w>
xéno phob
val oir</w>
uni forme</w>
show ed</w>
ser tion</w>
ré conciliation</w>
ob tenus</w>
ap s</w>
établi es</w>
repres enting</w>
inter dit</w>
hor ri
func tions</w>
ex changes</w>
directive- cadre</w>
Syri a</w>
M ay
ten sion</w>
radi o</w>
juridi quement</w>
import ed</w>
h o</w>
famili ar</w>
J our
ci g
c es
amen er</w>
ad mi
Engl ish</w>
è dent</w>
exprim és</w>
ambiti euse</w>
respec tant</w>
no body</w>
dra matic</w>
dev ez</w>
continu erons</w>
alis ée</w>
E F
under lying</w>
réjou issons</w>
in k
i des</w>
O therwise</w>
ov ine</w>
no tes</w>
illu stra
ho c</w>
qu asi
low -
barri ères</w>
A z
1 1.
reg imes</w>
nég atives</w>
neutra l
fi res</w>
evalu ate</w>
withdraw al</w>
suffis antes</w>
ri ez</w>
biocar burants</w>
C ode</w>
0 2</w>
ta ine</w>
off ices</w>
h ô
cou pa
achiev ements</w>
san itaires</w>
ju dge</w>
conserv ateurs</w>
éta pes</w>
op tique</w>
n esses</w>
h ouse</w>
gre c</w>
Sar ko
Mal te</w>
prior itaire</w>
conv ince</w>
resol ving</w>
o re
g as
es cal
Joh ann
see kers</w>
prot est</w>
pres sing</w>
acti vis
Au stra
y ers</w>
vir us</w>
toler ance</w>
inter im</w>
gu re</w>
cra intes</w>
Simil arly</w>
ru ling</w>
prouv é</w>
in contes
extré mis
explicit ement</w>
diminu er</w>
aqu ac
Tri bun
PN R</w>
met tra</w>
inv ité</w>
eri ons</w>
dev ions</w>
com bler</w>
cel lu
V it
T ai
Li ban</w>
EM U</w>
souha iter</w>
particip ent</w>
op pression</w>
no ter</w>
far -
donn era</w>
anti cipa
ann once</w>
vi enne</w>
Sarko zy</w>
198 9</w>
tu m
mar king</w>
in titu
explan ations</w>
bo t
aéri enne</w>
mo des
l u</w>
grand ement</w>
exacer b
ex tradition</w>
endors ed</w>
dési r</w>
conse ill
ar tis
8 9</w>
under stand
proportion ate</w>
proch es</w>
off en
j ac
Sy rie</w>
Fi f
rest era</w>
provi ders</w>
non- governmental</w>
mis takes</w>
mainten ance</w>
al er
Vi et
8 -
ter ait</w>
pré occupe</w>
prof ession</w>
gu ère</w>
er ron
diz aines</w>
avan t-
S omali
Liby a</w>
F u
victi m</w>
préserv ation</w>
banc aire</w>
aux -
annu elle</w>
accord ingly</w>
4 -
dow n
car bu
Certa ines</w>
scrutin y</w>
réd action</w>
r are</w>
quel ques-
pro -
fer mer</w>
ex ister</w>
décisi f</w>
d ity</w>
bloc k</w>
apport ée</w>
R ü
ti ères</w>
rubri que</w>
pris ing</w>
har m</w>
gradu al</w>
dec ent</w>
cig are
Lond res</w>
us al
super visory</w>
lo cu
const ante</w>
Tribun al</w>
Sy stem</w>
Ou tre</w>
w om
prob able</w>
pro ves</w>
o t</w>
c rops</w>
ç on</w>
n it
invest ors</w>
fin ir</w>
sau ver</w>
res ear
ren voy
procha inement</w>
incorpo rate</w>
précéd entes</w>
perfec t</w>
ouv re</w>
i les</w>
expli qué</w>
dem ents</w>
acc eler
ab uses</w>
routi ère</w>
os é</w>
in equ
Vene zu
chan n
accep ting</w>
nor thern</w>
lo sing</w>
charg ée</w>
ti le</w>
rec ti
preven tive</w>
interven ants</w>
immédi at</w>
human ity</w>
financ ements</w>
examin ation</w>
démographi que</w>
con dol
ap pointment</w>
acknowledg ed</w>
a o
par cours</w>
mo vements</w>
lac king</w>
intéri m
compar ison</w>
ar t</w>
advoc ate</w>
adv anced</w>
7 7</w>
vo ilà</w>
stoc kage</w>
sincer e</w>
cl ô
au er</w>
subse quently</w>
nor me</w>
mé ment</w>
min eurs</w>
hop ed</w>
est- elle</w>
conver sion</w>
atten tats</w>
aff ord</w>
retar y-
indépend amment</w>
for man
crédi ble</w>
appro aches</w>
Ukra ini
Re ding</w>
s low</w>
out lined</w>
imp ôts</w>
gro w</w>
fix e</w>
cons ent</w>
Y outh</w>
Sou dan</w>
str ing
far ms</w>
d den</w>
consta tons</w>
confi dent</w>
ap h
aband onner</w>
v ina</w>
t endre</w>
im patience</w>
cer tific
n ar
min e</w>
jeu ne</w>
cad res</w>
accoun tability</w>
An d
third- country</w>
syst ématique</w>
sh e
log ement</w>
f aux</w>
er res</w>
autonom y</w>
réglem enter</w>
enthou sias
T it
tro m
se as</w>
apport ées</w>
adequ ately</w>
ér in
énor mément</w>
vis ited</w>
sol di
resour ce</w>
precau tionary</w>
ner ships</w>
ne z</w>
equ ivalent</w>
Th rou
Au gust</w>
stric te</w>
s ales</w>
reduc tions</w>
paragrap hes</w>
exam ining</w>
com pu
bann ed</w>
T u
yn n</w>
tour n
spec ta
sovi étique</w>
s essions</w>
li ked</w>
laiss é</w>
décisionn el</w>
comit ologie</w>
bor ne</w>
Ma inten
se ar
ré tabl
ryth me</w>
re l</w>
po isson</w>
ir régular
id able</w>
habil itation</w>
condam nation</w>
Le hne</w>
wom an</w>
pertin entes</w>
it ems</w>
har dly</w>
dis ons</w>
systé matiquement</w>
r h
per mitted</w>
minim al</w>
ins crire</w>
S an</w>
teri al</w>
sid a</w>
sent ence</w>
s auv
gi bles</w>
fai m</w>
eu tiques</w>
ao ût</w>
accep tance</w>
écar t</w>
per forman
méditerrané en</w>
conta ining</w>
atte ints</w>
trait ées</w>
ti ère</w>
soulev ées</w>
rédu ite</w>
pro clam
maî tr
it ably</w>
L et
Glob alisation</w>
y our
vali d</w>
so ever</w>
k in</w>
dépl ore</w>
considé rés</w>
compe te</w>
au l</w>
ég ards</w>
new s
m ere</w>
g n</w>
fondament alement</w>
consul t
cohér ent</w>
Qu atri
your self</w>
no by
impér atif</w>
harmon ise</w>
fe asi
comm end</w>
associ és</w>
Re form</w>
Ple ase</w>
B ow
satis faits</w>
ori ent
loo ks</w>
ir ont</w>
appropri és</w>
ag eing</w>
actu alité</w>
éventu ellement</w>
parten ariats</w>
paragrap hs</w>
gn ation</w>
exist ante</w>
atten te</w>
AR E</w>
sau f</w>
multi ples</w>
ir ing</w>
e gr
adop tant</w>
N ic
7 8</w>
s- nous</w>
pa ges</w>
dan ois</w>
assu rément</w>
T AC
util ité</w>
résol us</w>
pluri annuel</w>
exig ent</w>
erro r</w>
an xi
vic time</w>
uni e</w>
prouv er</w>
potenti els</w>
on y
ac qui
Wal d
J ar
6 00</w>
sold ats</w>
re ciproc
ke en</w>
ass ister</w>
Sec retary-
M it
recher cher</w>
re pli
gu er</w>
él an</w>
subse quent</w>
pro liferation</w>
plaf ond</w>
perp et
monit ored</w>
in certitude</w>
hy gi
bru t</w>
0 8</w>
v ity</w>
s pon
em pris
ch ute</w>
P endant</w>
L omé</w>
éri r</w>
what soever</w>
o v</w>
Wald ner</w>
ém is</w>
ä n
w ages</w>
un g</w>
ris quent</w>
intellig ence</w>
h 30</w>
foun dation</w>
Secretary- General</w>
é mettre</w>
socio- economic</w>
explicit ly</w>
espè ce</w>
e ant</w>
dé montrer</w>
det ention</w>
sex es</w>
juris diction</w>
fac es</w>
dou bl
convic tions</w>
amélior ée</w>
R apport
ré sum
poursu it</w>
mom ents</w>
mat es</w>
m entation</w>
lau gh
hi li
focu sing</w>
dr in
as se</w>
anti bio
S ri</w>
uni form
rail ways</w>
noby l</w>
n ine</w>
kil om
immun ity</w>
dispu tes</w>
destro yed</w>
With in</w>
s ale</w>
réussi r</w>
pass ée</w>
experi ences</w>
développ é</w>
décisi on-cadre</w>
conci lier</w>
T om
Démo cra
û ment</w>
organi z
inequ alities</w>
hand ling</w>
ber cu
6 4</w>
5 .
tre at</w>
re trouver</w>
or ino</w>
h our</w>
enj oy
concern é</w>
S P
An n
- to-
res istance</w>
g lo
arrang ement</w>
A bo
rang ing</w>
présent era</w>
pa pers</w>
in side</w>
histori ques</w>
clas s</w>
bu y</w>
av or
aux- démocrates</w>
an ti</w>
Na turally</w>
8 6</w>
écolo giques</w>
vol et</w>
miss ing</w>
jo indre</w>
inclu t</w>
fre ight</w>
as si
Vit orino</w>
Johann es
popul ar</w>
intég rante</w>
fur thermore</w>
enregist rement</w>
consid èrent</w>
ban que</w>
arriv é</w>
produc tivité</w>
parad ox
ow n-
enta mé</w>
aquac ulture</w>
t ti</w>
r ares</w>
or i</w>
o st
modi fiée</w>
mobil iser</w>
dé ficits</w>
democrati sation</w>
ch oc
simpli fied</w>
registr ation</w>
nourr iture</w>
minist éri
dis advan
ani me</w>
ambass ad
Sahar a</w>
2 50</w>
sugges ts</w>
safegu ards</w>
di alo
char bon</w>
Sloven ia</w>
F é
Ac tu
év olutions</w>
tes- chrétiens</w>
famili ale</w>
détermin ée</w>
Vo tre</w>
ré form
pro xim
plac er</w>
pass ant</w>
ma sse</w>
ir regular
in e
Mexic o</w>
vi ons</w>
soci aux-démocrates</w>
imag iner</w>
d ess
conjo inte</w>
amélior é</w>
Ch r
surroun ding</w>
obli ge</w>
n ô
h n
en ables</w>
circons cription</w>
O ther</w>
Liby e</w>
7 6</w>
unil ateral</w>
sou ci
sin on</w>
mod els</w>
mo tor</w>
ins ec
dictator ship</w>
africa ine</w>
Pa cifi
IN I</w>
GM Os</w>
ri gueur</w>
matéri el</w>
6 1</w>
vers er</w>
ord -
bat eaux</w>
ro ger</w>
priv acy</w>
gu il
f ears</w>
dol lar</w>
Liber ties</w>
tab le
soul ève</w>
r ous</w>
par aly
expres sément</w>
décisi ve</w>
bac king</w>
alis ées</w>
support er</w>
s ch
g ained</w>
fer ai</w>
execu tive</w>
con fer
ach at</w>
absur de</w>
Ferre ro-
8 7</w>
vi abilité</w>
k ur
jug ement</w>
hel ps</w>
consci ente</w>
appu y
O p
Co sta</w>
Be aucoup</w>
rele ased</w>
refuge e</w>
rati fier</w>
l undi</w>
immun ité</w>
dé tenus</w>
dicta ture</w>
devo ted</w>
tu e</w>
toni ght</w>
tag ed</w>
lic ence</w>
dro p</w>
direc tes</w>
africa ins</w>
Ferrero- Waldner</w>
produc tivity</w>
igno red</w>
ic k</w>
fin ish</w>
C l
sou th</w>
sign s</w>
s ag
prov en</w>
la m</w>
fo i</w>
em o
com ités</w>
ati vement</w>
spé cul
recycl age</w>
man qu
dispar ités</w>
d red</w>
mo rale</w>
communi quer</w>
chem ins</w>
bre ach</w>
architec ture</w>
th ous
ra n</w>
physi que</w>
pa th
ora ge</w>
hun dred</w>
am s</w>
ab road</w>
y r
part nerships</w>
lif el
gi quement</w>
atta ched</w>
S A
é conom
ra vie</w>
me ets</w>
in justice</w>
glob alement</w>
fabric ants</w>
extern es</w>
aider a</w>
Man n</w>
pos sé
portu gais</w>
onn és</w>
repres sion</w>
acqu isi
U EM</w>
li eux</w>
accoun ting</w>
w in</w>
to w
ti ème</w>
listen ing</w>
inclu sive</w>
gene tically</w>
dérog ation</w>
inqu iry</w>
ach ev
éch app
z a</w>
la h</w>
ju ger</w>
fo rec
consolid ate</w>
Pers onne</w>
Mainten ant</w>
séri euses</w>
pre requis
pos t</w>
ch ée</w>
Wh o</w>
, 000</w>
tri c
respec tées</w>
modi fiés</w>
for me
ap pointed</w>
S har
Rom anian</w>
Iran ian</w>
H arb
E R</w>
re di</w>
organi c</w>
limit ations</w>
examin ons</w>
cu tting</w>
am es</w>
Commun ic
1 20</w>
tr ons</w>
sligh tly</w>
sensi bilisation</w>
pilo t</w>
fail ing</w>
e ast</w>
clai med</w>
arbit ra
S il
Ob serv
Minis tre</w>
I e</w>
élev age</w>
vit esse</w>
prof ite</w>
n am</w>
imper ative</w>
fa ils</w>
dés accord</w>
bre ak
autom ne</w>
Col le
C eux</w>
substanti elle</w>
string ent</w>
sc en
i or</w>
g age</w>
effor cer</w>
criter ion</w>
z emb
prépar é</w>
iss er</w>
gu ide</w>
coll abor
Spe cial</w>
8 8</w>
tum n</w>
représent ante</w>
présid enti
pre text</w>
enthousias me</w>
de ficits</w>
own- initiative</w>
leng th</w>
ce iling</w>
bir th</w>
ap er
sympa thy</w>
substanti ally</w>
rap ides</w>
provo qué</w>
no y
mp ;</w>
maj eures</w>
li aison</w>
conten ant</w>
Th ess
Scot land</w>
L ou
Jar zemb
Harb our</w>
&a mp;</w>
voul ez</w>
ver te</w>
ss é</w>
omen -
ju ri
dé crit</w>
author ised</w>
T ant</w>
établ is</w>
é rées</w>
st orage</w>
rich esse</w>
pursu ing</w>
pill ars</w>
issu s</w>
illég aux</w>
h es
exclu re</w>
enab led</w>
brev et</w>
Herz ég
ni ti
lingu istique</w>
adap ted</w>
Jarzemb owski</w>
Herzég ovine</w>
Herz ego
tur que</w>
mur der</w>
i er</w>
du r</w>
A 6-0
wh el
to rate</w>
s aine</w>
ré par
multi annual</w>
cher cheurs</w>
Ques tions</w>
P ack</w>
thous and</w>
ren oncer</w>
pli cation</w>
mé mo
gas pill
fer ait</w>
ec o
avanc é</w>
al oni
abs ent</w>
I niti
D av
é curité</w>
sav ing</w>
réjou ir</w>
rog atives</w>
péri l</w>
presid ential</w>
m ées</w>
inqui ét
gu l
grav ité</w>
arti fici
ann ul
C ould</w>
so in</w>
quotidi enne</w>
préci eux</w>
p ush
ol der</w>
occid entale</w>
fulf illed</w>
enshr ined</w>
Herzego vina</w>
protég és</w>
pres ents</w>
over whel
lingu istic</w>
fo od
exemp tions</w>
diplom atique</w>
condi tional</w>
ar rest
accu rate</w>
Slov énie</w>
C ô
re productive</w>
cl ame</w>
bov ine</w>
O omen-
Fri day</w>
An nex</w>
é cole</w>
trans l
ij ten</w>
di min
ach eter</w>
Oomen- Ru
y ou
wholehear tedly</w>
soldi ers</w>
renew ed</w>
rencont rer</w>
g ing</w>
am én
Rapport eur</w>
z á
w o
contradic tions</w>
Cy prio
ta t</w>
stipu le</w>
s col
fem ale</w>
en fre
dispos és</w>
bl ame</w>
200 0-
re percussions</w>
pré ten
lifel ong</w>
lear ned</w>
in compatible</w>
félicit ons</w>
exhaus tive</w>
cli ents</w>
Thess aloni
Bar ón</w>
è g
vacc ination</w>
usu ally</w>
statu te</w>
no tice</w>
forme l</w>
en sured</w>
ch e-
autrichi enne</w>
au tumn</w>
Objec tive</w>
Cor bet
Abo ve</w>
vo ters</w>
viv ons</w>
ré elles</w>
mo du
hec t
de pri
T S</w>
S L</w>
Oomen-Ru ijten</w>
Institu te</w>
in direct</w>
corri ger</w>
con fin
complex ité</w>
cher a</w>
an téri
P hili
tra duire</w>
ta r</w>
f at</w>
G ö
la is
gro ss</w>
commen cer
ajou te</w>
Bö ge</w>
s ach
pen ing</w>
octro yer</w>
j a
er o
défin it</w>
dam aging</w>
bor n</w>
bi ologique</w>
ard ous</w>
accr u</w>
Ri en</w>
6 9</w>
éclai r
op t-
draft sman</w>
disast rous</w>
cré ant</w>
US D</w>
trait ements</w>
ti ous</w>
sear ch</w>
rig orous</w>
respon ses</w>
pén ales</w>
parti ellement</w>
inno cent</w>
fall ing</w>
destro y</w>
P H
Bosni e-
tox ic
philos ophi
medic inal</w>
in admissible</w>
eventu ally</w>
collap se</w>
bio fuels</w>
autor isés</w>
Cel u
ú n</w>
réalis ées</w>
out i</w>
mag ni
gé no
ent ering</w>
endro it</w>
end it</w>
disadvan taged</w>
couver ts</w>
comple tion</w>
absur d</w>
B lack</w>
vic toire</w>
thi op
tari ff</w>
statis tical</w>
no tation</w>
initi ated</w>
g ents</w>
fif th</w>
crimin als</w>
condam né</w>
a just
Li ik
évid ente</w>
tiss ement</w>
satis faisant</w>
rév olution</w>
rémun ération</w>
justi fiée</w>
har dt</w>
ge ous</w>
en jeu</w>
apport era</w>
S t
E tats</w>
Corbet t</w>
Commun autés</w>
voc ational</w>
re porting</w>
de dic
cu ri
ver a</w>
v ation</w>
ru es</w>
inter rog
fundament ally</w>
d oul
cham pi
Mc Car
K az
ten egr
gener ate</w>
Pro c
Mon tenegr
val able</w>
tu bercu
struc k</w>
réalis tes</w>
j a</w>
f ought</w>
as sets</w>
S wit
Liik anen</w>
ra t
in ju
de ad</w>
contribu tes</w>
constitu era</w>
offici ellement</w>
l ée</w>
l us
j eux</w>
is ms</w>
constitu é</w>
am an
un anime</w>
plac ement</w>
mean time</w>
in capacité</w>
at titudes</w>
PES C</w>
Atlanti que</w>
prof ess
eff ond
diri g
concrétis er</w>
catastrop hi
T er
Nor dic</w>
F a
Ch ers</w>
CO S</w>
tor t</w>
res titu
im pulsion</w>
er al</w>
contra st</w>
chôm eurs</w>
Co hn
thor ou
t á
san g</w>
irrégular ités</w>
g le</w>
dec line</w>
ai m
Venezu ela</w>
un it</w>
pu issances</w>
prof itable</w>
la ying</w>
incen tive</w>
in able</w>
h élas</w>
donn ant</w>
ac comm
Eston ia</w>
Cel le-ci</w>
pro active</w>
pass ing</w>
exp and
espo irs</w>
Re hn</w>
8 2</w>
éven tail</w>
zer land</w>
tionn aires</w>
recomm ended</w>
pour parl
pourparl ers</w>
in citer</w>
f low</w>
endeav our</w>
end rai</w>
cap e</w>
brè ve</w>
Swit zerland</w>
E P</w>
Cohn -B
Cohn-B endit</w>
Aucu n</w>
t rop
stric tement</w>
sign es</w>
rel ancer</w>
mes se</w>
illég al</w>
co financement</w>
I voire</w>
H ague</w>
ty -
rup t</w>
nég ative</w>
haz ardous</w>
ent ends</w>
ch et</w>
Sch mi
sub -
so le</w>
résul te</w>
re mark
prepar atory</w>
im peri
déc ès</w>
D u</w>
An née</w>
él è
négoci é</w>
neg lec
hon orables</w>
eman n</w>
Quatri èmement</w>
7 2</w>
stimul ate</w>
scienti sts</w>
organiz ations</w>
emphas ises</w>
consist ently</w>
b ande</w>
a th
Su isse</w>
Qu el
Lat via</w>
éché ant</w>
thé ori
s low
reser ves</w>
ide al</w>
gu ise</w>
fon dées</w>
desi red</w>
constitu tionnelle</w>
conform er</w>
susp ici
semes tre</w>
pu e</w>
démant èlement</w>
définiti f</w>
avoi ded</w>
requ is</w>
pa pi
inter ference</w>
déri v
assess ing</w>
ven ez</w>
quanti tés</w>
fif teen</w>
Tai wan</w>
8 1</w>
épi démi
vol s</w>
v ét
sign atures</w>
réalis ée</w>
Ber lus
v es
stic k</w>
nov ation</w>
e a</w>
comit ology</w>
Su d-
Berlus coni</w>
th ro
présent es</w>
légi férer</w>
im pu
dou ze</w>
do g
c oul
vis er</w>
mit ting</w>
lo r</w>
insta bilité</w>
don ateurs</w>
Ol ympi
ve ge
nor di
multil ingu
moder nes</w>
dé mar
dem eur
bo is</w>
atri ce</w>
trans national</w>
su ivie</w>
raisonn ables</w>
pertin ent</w>
mondi ales</w>
excep t</w>
préfé rable</w>
march es</w>
dri ve</w>
disab ilities</w>
dem i</w>
ban anes</w>
ac k
E R
sur pris</w>
sp ati
re group
gen oci
d on</w>
cellu les</w>
M I</w>
règ ne</w>
rein forced</w>
clas ses</w>
U ni
tack led</w>
ré chauff
resta ur
resp o</w>
no tification</w>
irregular ities</w>
formul é</w>
ar abe</w>
J un
D EM</w>
C respo</w>
industri el</w>
g an
ber t</w>
affir mation</w>
menti onne</w>
fall u</w>
div isions</w>
democrati cally</w>
cô tes</w>
cu le</w>
N eigh
suspen due</w>
su ici
souti endra</w>
hop efully</w>
he ads</w>
detri ment</w>
deni ed</w>
contra t</w>
parti sans</w>
ow nership</w>
initi ally</w>
déb ar
don ors</w>
blo od</w>
Feder ation</w>
vari ety</w>
piè ces</w>
mar qu
dérog ations</w>
at z
Mal m
É co
vit ale</w>
opérationn el</w>
in acceptables</w>
fe atures</w>
avanc és</w>
accu sed</w>
B G</w>
ving t-
sur face</w>
rég issant</w>
jou ets</w>
inti mi
co al</w>
attrac tive</w>
Every one</w>
ég al</w>
prof it
particip e</w>
no -
mu r</w>
grec que</w>
assist ants</w>
vend redi</w>
serv ent</w>
ra ux</w>
ma y
int ra
Lam y</w>
Four thly</w>
EU R
ur ani
soli des</w>
s ad</w>
parliam ent
esti ment</w>
dec re
assu red</w>
Con form
vét érin
sépar ation</w>
se x</w>
religi eux</w>
dispos é</w>
ch yprio
attribu tion</w>
élev ée</w>
vo que</w>
transfer ts</w>
r ants</w>
fo ssé</w>
arm am
Viet nam</w>
M ag
Lan ka</w>
L eur</w>
Johannes burg</w>
G on
CF SP</w>
requ ête</w>
pro messe</w>
imp ôt</w>
far- reaching</w>
correspon ding</w>
an des</w>
air port</w>
Barro t</w>
vigil ant</w>
ton ie</w>
sur vie</w>
nam es</w>
l ists</w>
in- depth</w>
f it</w>
TAC IS</w>
Par ce</w>
tra gique</w>
sé cur
s u</w>
gra vement</w>
coordin ating</w>
constra ints</w>
Christi ans</w>
vieill issement</w>
remo val</w>
procé dé</w>
k y</w>
e te</w>
x th</w>
syner gies</w>
ser a
s élec
pron oncé</w>
mora tori
hongro is</w>
du al</w>
di quer</w>
coun ci
ch -
PH ARE</w>
Montenegr o</w>
H IV</w>
Conform ément</w>
w estern</w>
urani um</w>
tou gh</w>
ta bilité</w>
souten ant</w>
s me</w>
privil e
in évit
en ko</w>
emerg ed</w>
découl ant</w>
con gé</w>
compati bles</w>
comm ises</w>
ch ron
Neigh bour
vol ati
usal em</w>
tá nam
résolu ment</w>
renouvel able</w>
regar der</w>
isol ation</w>
high- quality</w>
form ally</w>
facilit ating</w>
elles -mêmes</w>
de lic
cat ch</w>
avan tag
Su p
Let tonie</w>
Guan tánam
8 3</w>
un de
olog ne</w>
ma ture</w>
formul ée</w>
allou és</w>
add resses</w>
Guantánam o</w>
D ay</w>
philos oph
disponi bilité</w>
blo c</w>
as ta
ag ré
Jac ques</w>
IN D</w>
Alg eria</w>
établi e</w>
su ms</w>
référ endums</w>
r ational</w>
or ds</w>
dispositi f</w>
cont enter</w>
civili ans</w>
auth enti
administr atifs</w>
prév isions</w>
judici eux</w>
fais ait</w>
explo it</w>
compon ent</w>
ass or
Wh ilst</w>
Cau ca
vra ie</w>
v en</w>
resear chers</w>
on ess</w>
food stuffs</w>
benefici aries</w>
arri ved</w>
appu ie</w>
S ocra
7 3</w>
tou ch</w>
ta blement</w>
ship ping</w>
recycl ing</w>
norm alisation</w>
isl ands</w>
fal se</w>
f lights</w>
V I
ME P</w>
Bar oness</w>
Ar men
turel lement</w>
ta ient</w>
m és</w>
discrimin atory</w>
de part
b adly</w>
S in
O rient</w>
M un
ö r
rédi ger</w>
monopo ly</w>
industri elles</w>
fabri cation</w>
dis sem
G al
Ann an</w>
differ enti
dica p</w>
al ing</w>
S ome
Democra cy</w>
1 2.
y an
ré ci
res ts</w>
refer ences</w>
maxim ale</w>
for ment</w>
d ai
con centre</w>
approfon di</w>
XX Ie</w>
L o
éventu elles</w>
électri ques</w>
k ly</w>
every where</w>
en -
e ons</w>
c ope</w>
accessi bles</w>
Sm all</w>
Actu ellement</w>
plan et</w>
insta bility</w>
im er</w>
desi gn</w>
b oun
Malm ström</w>
voudra it</w>
ré clame</w>
re tra
ma tur
hun ger</w>
démocra tes-chrétiens</w>
ar ité</w>
Mont énég
tend ent</w>
s laugh
interrom pue</w>
ho st</w>
character ised</w>
Na turellement</w>
Gre at</w>
E N
sou venir</w>
secré tariat</w>
rem is</w>
moratori um</w>
lob by
le aves</w>
inter -
es h</w>
enj eux</w>
ence inte</w>
compagni e</w>
and er</w>
J osé</w>
7 00</w>
v it</w>
transit oire</w>
top ics</w>
tes ting</w>
lo gic</w>
jet er</w>
investig ate</w>
fix ation</w>
ferrovi aires</w>
condi tionn
assess ed</w>
Neighbour hood</w>
A S</w>
schedu led</w>
mora toire</w>
ing -
han dicap</w>
fas hi
expos ed</w>
cons is
all ed</w>
témo igne</w>
touch ent</w>
partag ent</w>
naturel le</w>
mar qué</w>
ill on</w>
en l
No ire</w>
renfor çant</w>
pharmaceu tical</w>
par viendrons</w>
occu pied</w>
dé marches</w>
deli vered</w>
bénéfi que</w>
appreci ation</w>
affec te</w>
tun a</w>
k m</w>
devi endra</w>
bru t
b é
transport eurs</w>
sol s</w>
sensi blement</w>
pu re</w>
pens ée</w>
in utiles</w>
cl ass
R oc
Communic ation</w>
Cau case</w>
7 -0
xénophob ie</w>
ti s</w>
spec ulation</w>
pac ts</w>
g ases</w>
den y</w>
den oun
d ying</w>
ad verse</w>
S A</w>
Dav id</w>
7 4</w>
tra duit</w>
to s</w>
soulev ée</w>
sec toral</w>
s- même</w>
rem ise</w>
pré férence</w>
migra toires</w>
habitu de</w>
en registr
dispar ities</w>
d ûment</w>
ag gra
Monténég ro</w>
Eston ie</w>
Bi élor
8 00</w>
sep tième</w>
re- temps</w>
ob tention</w>
just ment</w>
det ec
av al</w>
aut- il</w>
affec tés</w>
ous ness</w>
la g</w>
genoci de</w>
fas c
fac to</w>
contre façon</w>
compli ed</w>
b att
ar gue</w>
Th an
w ished</w>
sév ères</w>
st resses</w>
spéci fic
reli ef</w>
re loc
ouver ts</w>
on i</w>
internation ally</w>
forest ry</w>
entend ons</w>
ear th
domm age</w>
dec entral
be it</w>
audiovisu al</w>
ari ans</w>
abst enir</w>
Tech nolo
I L
ri ons-nous</w>
dé passe</w>
dis ait</w>
confir ms</w>
concer t</w>
co des</w>
ais ons</w>
Socra tes</w>
system atically</w>
stric ter</w>
potenti ally</w>
in verse</w>
floo ds</w>
dési re</w>
bénéfici é</w>
bur d
autor isé</w>
ast es</w>
W ould</w>
H ay
y de</w>
on ale</w>
hom es</w>
forest ation</w>
fo ster</w>
fix ées</w>
concer tation</w>
chré ti
ar rested</w>
Deuxi ème</w>
tend ances</w>
remar k</w>
com pro
car burants</w>
assur é</w>
arbit r
ann oncer</w>
Institu t</w>
s par
re pos
ra lement</w>
mentionn ées</w>
indi quent</w>
g ame</w>
dépos ées</w>
Per spec
vo cation</w>
ti ne</w>
rédu its</w>
pr ô
fix ed</w>
exi que</w>
erro rs</w>
ar rog
al beit</w>
Qu art
s cre
pers ist
org an</w>
mémo ire</w>
ew ise</w>
emb all
dead lines</w>
dange reuse</w>
adjust ment</w>
Res olution</w>
tra ç
tionn aire</w>
senti r</w>
pa l</w>
es ter</w>
dev ise</w>
ben ch
ar der</w>
M exique</w>
ven ant</w>
tr ation</w>
san itaire</w>
s ées</w>
res or
enver gure</w>
critic isms</w>
cour te</w>
Alg érie</w>
vic tory</w>
réchauff ement</w>
perman ence</w>
n t</w>
lég al</w>
facil ity</w>
du m</w>
bru tal</w>
abor dés</w>
Vi enna</w>
se z-
re dev
fourni es</w>
fa te</w>
atta ch</w>
Kur dish</w>
Cauca sus</w>
transfer red</w>
requ ises</w>
re viewed</w>
intérim aire</w>
en z</w>
dispos ée</w>
arri ère</w>
C anc
Éco sse</w>
xen ophobia</w>
vigil ance</w>
ver ts</w>
unde res
thorou ghly</w>
slov a
s car
n an
da ta
Rel ations</w>
préc ision</w>
portu aires</w>
na issance</w>
integra l</w>
ev y</w>
e- scale</w>
coun tr
av érer</w>
atti re</w>
Vi enne</w>
Cô te</w>
B yr
u kra
ren ation
ins on</w>
consac rée</w>
bl ess
Canc ún</w>
Biélor ussi
trait ée</w>
to ra
sanc tion</w>
ren dus</w>
regul ating</w>
prior iti
in sertion</w>
apport ent</w>
V u</w>
Shar on</w>
Biélorussi e</w>
we b
tradi tionnelles</w>
résum é</w>
reconn ais</w>
protectionn isme</w>
inté resse</w>
inev itably</w>
fé min
appro ches</w>
travaill ant</w>
comprehen sible</w>
c élé
T an
ukra ini
syn th
soulev és</w>
qu erait</w>
mo dé
as s</w>
appe ar
N et
F ace</w>
Al ex
table au</w>
self- employed</w>
s h</w>
prohi b
persecu tion</w>
open ly</w>
confir mation</w>
con tenus</w>
appar ently</w>
angla is</w>
remplac ement</w>
manifes tation</w>
ir o</w>
e- based</w>
détaill ées</w>
demand ed</w>
corpo rate</w>
Bon ino</w>
t rement</w>
susc ité</w>
résolu e</w>
on t-ils</w>
fragm entation</w>
fall en</w>
ex pul
effectu és</w>
delic ate</w>
Hay e</w>
vi de</w>
under p
transf ers</w>
respon ding</w>
peri ph
per ception</w>
gar anti</w>
dig ne</w>
des quels</w>
cré ée</w>
bilatéra les</w>
approfon dir</w>
C ast
v entes</w>
ren due</w>
perp ét
opérationn elle</w>
li ères</w>
institu tionnels</w>
honn ête</w>
fon de</w>
différ enci
cons ists</w>
alarm ing</w>
C li
in ess</w>
critic ised</w>
assur ant</w>
approuv ons</w>
adap tée</w>
virtu ally</w>
survi val</w>
poss èdent</w>
mu si
incre di
au d
Thir d</w>
Med ina</w>
Free doms</w>
, 5</w>
un preced
protection ism</w>
développ ées</w>
diver se</w>
Mul der</w>
Ev ans</w>
ré col
rec orded</w>
inves ting</w>
for d</w>
cher chent</w>
bru it</w>
avoi ding</w>
a taires</w>
Con ci
Byr ne</w>
syn dic
so f
réuni r</w>
ra y
pour rais</w>
honn ê
exc é
constitu ency</w>
conn ue</w>
clos ing</w>
clas se</w>
appa remment</w>
Ad justment</w>
7 9</w>
visi bilité</w>
sion ers</w>
prévoy ant</w>
poli es</w>
ha li
avail ability</w>
ali zation</w>
E ff
éti qu
subjec ted</w>
révél é</w>
mani pu
li mi
g er
examin ée</w>
Mc Cre
Asi an</w>
war m</w>
sol d</w>
sec ur
san tes</w>
op érer</w>
k el</w>
ill -
géographi ques</w>
dec ade</w>
contraign ante</w>
appro ach
accep tation</w>
McCre evy</w>
B usin
A mon
w on</w>
qu o</w>
produc er</w>
less on</w>
israéli en</w>
val or
unpreced ented</w>
ss en</w>
remain ed</w>
refus al</w>
organis me</w>
cha os</w>
Is lam</w>
Conci liation</w>
Arc tic</w>
s age</w>
ré tic
persu ade</w>
ma kers</w>
land er</w>
focu ses</w>
fi ce</w>
défens eurs</w>
wor ried</w>
st ers</w>
sex e</w>
ri ra</w>
pat ents</w>
es to
em pre
cau sés</w>
broad ly</w>
b y-
ambigu ï
accep tés</w>
st ating</w>
se at</w>
résul tant</w>
pouv aient</w>
la v</w>
intéress ante</w>
in comes</w>
exclu de</w>
déplo i
dis su
religi euse</w>
recogn ising</w>
larg e-scale</w>
appa re
Celu i-ci</w>
tra duction</w>
re vi
re alised</w>
inv asion</w>
hon es
ak h
sub i</w>
religi ons</w>
la ys</w>
géno cide</w>
atta che</w>
alis ations</w>
S ci
B our
warm ing</w>
tri lo
res source</w>
radio active</w>
mer cure</w>
dé l
considé rées</w>
ati vité</w>
Ban g
véri fication</w>
sh oul
plural isme</w>
fl é
diplom atiques</w>
cu p
charac ter</w>
Gon zá
Co el
vis it
s w
resta urer</w>
prépar atifs</w>
préf érences</w>
off ic
obta ining</w>
lour ds</w>
for ts</w>
esto ck</w>
démocrati es</w>
domin ant</w>
con formes</w>
with drawn</w>
u c
t wi
so i-
quali fiés</w>
lég ales</w>
lab ora
in equality</w>
essay ons</w>
de au</w>
cont ents</w>
accue ille</w>
Proc ess</w>
Feder al</w>
Coel ho</w>
ti tle</w>
susc ite</w>
s aurait</w>
pré voient</w>
promo tes</w>
objec t</w>
ne ts</w>
le çon</w>
h in
for war
fin dings</w>
era dic
em atic</w>
Au trement</w>
vou s-même</w>
soi- disant</w>
nomm é</w>
inféri eur</w>
compens er</w>
bor g</w>
app alling</w>
A ir
xembour ge
sus cit
stop ped</w>
remin ded</w>
quotidi en</w>
préoccup és</w>
parall èle</w>
nor th</w>
lu xembourge
ear ing</w>
déci de</w>
comm enter</w>
absta in</w>
P O
Indonesi a</w>
équ ival
tabl ing</w>
po lit
ouver tes</w>
mean ing
gl ad
défavor isées</w>
cre ative</w>
carbu rant</w>
é sie</w>
senti ments</w>
sc én
refl ètent</w>
re rait</w>
dé ç
dic tions</w>
adul tes</w>
a o</w>
Aucu ne</w>
échou é</w>
stri ve</w>
sol ving</w>
ré actions</w>
prov ince</w>
prac tically</w>
pos taux</w>
l y-
influen cer</w>
continu ons</w>
consac rés</w>
CI A</w>
C ur
5 -
él ém
inter f
gi r
flu ctu
export er</w>
ent ally</w>
encoura ges</w>
descri ption</w>
consenti s</w>
t- elles</w>
sugg éré</w>
sec ret
ré examen</w>
eter inary</w>
env elopp
en sures</w>
douani ère</w>
D al
21 st</w>
vo d
traç abilité</w>
progress é</w>
pouss er</w>
min or</w>
dépos er</w>
dg ed</w>
comb ine</w>
c ast</w>
bureaucrati que</w>
bl ing</w>
adv ances</w>
Throu gh</w>
su nam
ren seign
remark able</w>
relation ships</w>
ras su
our ing</w>
off res</w>
islam ique</w>
enter prise</w>
demon stration</w>
clari fied</w>
ag ira</w>
sup pos
si ves</w>
re rs</w>
quit ter</w>
pun ishment</w>
méditerran éens</w>
fe ature</w>
avor tement</w>
Fé dération</w>
tow ns</w>
st y
pos ts</w>
là- bas</w>
g raph
financ és</w>
cro ît</w>
choc ol
audi tion</w>
arriv és</w>
améli ore</w>
A y
évolu er</w>
établ issements</w>
w ater
propos ant</w>
porta teurs</w>
polici ère</w>
intég rées</w>
esti mates</w>
enh ancing</w>
consul ter</w>
accompagn er</w>
rev olution</w>
prag matic</w>
liv estock</w>
libéra le</w>
e ira</w>
défin ie</w>
ari ous</w>
ar ra
P -
Ni elson</w>
su d-
mi que</w>
lég u
ins écurité</w>
ide ological</w>
eij ing</w>
correc tion</w>
compar aison</w>
ci el</w>
accep tée</w>
Mau rit
Gonzá lez</w>
Democra t</w>
Chr ist
B eijing</w>
- cadre</w>
quar ters</w>
im ages</w>
g ènes</w>
burd ens</w>
and -
Ky i</w>
Cli mate</w>
trem end
t sunam
satis fy</w>
référ ences</w>
reti rement</w>
re poser</w>
ra c</w>
limit ées</w>
gé o
ear marked</w>
ban an
twi ce</w>
reconna issons</w>
pén u
mil le</w>
in appropriate</w>
gosl ave</w>
. 000</w>
sp ir
soci ally</w>
réglem entaires</w>
réc ession</w>
monopo le</w>
inté res
fi ers</w>
détermin ant</w>
avanc ement</w>
abor tion</w>
Y esterday</w>
Than ks</w>
Secret ary</w>
R ound</w>
8 4</w>
économi quement</w>
suffis ants</w>
ex pir
estim ations</w>
employ er</w>
deci ding</w>
can cel
au n
att endant</w>
a la</w>
spe ed
pi erre</w>
origin ally</w>
ob sol
mi tig
manufactu ring</w>
lib érer</w>
entraî nera</w>
conclu ding</w>
cl on
ach em
W ol
Go als</w>
ré alités</w>
or ously</w>
og au</w>
mo ther</w>
ir respective</w>
in juste</w>
in her
ic a</w>
hon te</w>
cigare ttes</w>
W ogau</w>
Bel grade</w>
Ban glad
ouver tement</w>
ep i
ann onc
H is</w>
F I
é puis
si xième</w>
monopo les</w>
mentionn ée</w>
k istan</w>
bel ong
Sec tion</w>
Pe ace</w>
Ob ama</w>
EG F</w>
Ar ticles</w>
ul timate</w>
transfrontali ères</w>
tra ce
tent ent</w>
souff rance</w>
simpli fying</w>
répon dent</w>
re porter</w>
palestini ens</w>
g ger</w>
elimin ation</w>
dis proportionn
broad cas
Su u</w>
S a</w>
é en</w>
sta dt</w>
re traités</w>
fourn is</w>
fle ets</w>
absten u</w>
S ac
G arc
ét onn
sup por
stream ing</w>
s élection</w>
modu lation</w>
limi ting</w>
facilit ation</w>
condam ne</w>
O ost
I C</w>
st ory</w>
s ly</w>
parven ue</w>
mobil ise</w>
mid- term</w>
justi fié</w>
impli qué</w>
gener ous</w>
fi ent</w>
dés armement</w>
dépos ée</w>
décl en
cur y</w>
bure aux</w>
av ou
S ter
Garc í
éman ant</w>
terro r</w>
s log
prof ound</w>
in en</w>
heu r
far m</w>
approuv és</w>
acc entu
pré co
dra matique</w>
abol ish</w>
S I
G N
supran ational</w>
pers istent</w>
oblig és</w>
juris prudence</w>
interpre ted</w>
int er</w>
govern ed</w>
equi vo
e fs</w>
ca ts</w>
équi voque</w>
trans mis</w>
minu ti
mi- parcours</w>
impres sionn
dai ry</w>
chac une</w>
am i
U C
CF P</w>
A h
sur plus</w>
rec tific
rec ep
preced ent</w>
e v</w>
distor sions</w>
cel ls</w>
affai bl
acquisi tion</w>
P E</w>
Mand elson</w>
Joh n</w>
Comm uni
you goslave</w>
rétabl issement</w>
réci pro
provis oire</w>
plac é</w>
minist ère</w>
fin landaise</w>
ay ed</w>
adéqu ats</w>
U nivers
R w
voul ait</w>
shi ft</w>
démocrati quement</w>
democra cies</w>
che ap</w>
atmo sphere</w>
al lait</w>
akh stan</w>
Kaz akhstan</w>
K u
Free dom</w>
C R</w>
é prouv
vo ici</w>
visi bles</w>
souten us</w>
off ences</w>
end em
don or</w>
continu ité</w>
conduc teurs</w>
believ ed</w>
Pri ze</w>
Org ani
Oost lander</w>
Gö te
partag ée</w>
mo tif</w>
it als</w>
frapp é</w>
establish es</w>
end ers</w>
dis placed</w>
ass embly</w>
Mill énaire</w>
transpar entes</w>
tra ins</w>
ten ing</w>
susta ined</w>
ste in</w>
sel l</w>
réflexi ons</w>
ro l</w>
le -t-il</w>
indic ates</w>
dé sol
blan ch
bas ées</w>
aw ait</w>
autom atically</w>
atténu er</w>
appar aître</w>
ai ming</w>
P ou
E r
Colombi e</w>
13 7</w>
spec ul
renew al</w>
rejo ins</w>
mono polies</w>
indemn isation</w>
heav ily</w>
eu rement</w>
dén oncer</w>
Göte borg</w>
stra ight</w>
l istes</w>
is sez</w>
expos és</w>
F E
Ara fat</w>
souha its</w>
ran ces</w>
ner ait</w>
integr ating</w>
hor mon
bi ologiques</w>
af gh
a to</w>
La w</w>
L ul
C5-0 0
A part</w>
éché ance</w>
spé culation</w>
isol ated</w>
im pacts</w>
fonctionn ent</w>
dri ven</w>
div or
An k
201 4</w>
uni fied</w>
trouv ée</w>
prot est
organis ing</w>
or an
exer gue</w>
dev ast
des ta
dedic ated</w>
av éré</w>
adress ées</w>
R and
Pres tige</w>
Ag ainst</w>
A ung</w>
work place</w>
vo terai</w>
vill ages</w>
régu l
publi er</w>
pu ni
offici elles</w>
ins cri
con viendrait</w>
abu cco</w>
Vel zen</w>
N abucco</w>
Je an-
E ach</w>
20 50</w>
sous- jac
nes ty</w>
judici ary</w>
impos é</w>
e-t- il</w>
control ling</w>
ba taille</w>
am ène</w>
Slov ak</w>
S oy
Pers onn
C ash
tel ep
smo king</w>
sensi bil
r ite</w>
matern ité</w>
enti tés</w>
eg ed</w>
dou ane</w>
dispar ition</w>
abor dée</w>
M at
E quality</w>
Colombi a</w>
Cash man</w>
B et
uph old</w>
swi f
specta cul
rem it</w>
i ez</w>
ck er</w>
S O
Lul ling</w>
Fon taine</w>
Co x</w>
z éro</w>
un equivo
seri ons</w>
prerequis ite</w>
plural ism</w>
inter opéra
ener gies</w>
en force</w>
dé cr
dis gra
bl ack</w>
Indu stri
Hi er</w>
si t</w>
regis tered</w>
invit ons</w>
financ é</w>
direc tions</w>
der a</w>
complex ity</w>
Olympi c</w>
0 3
trav elling</w>
remo ving</w>
précon ise</w>
p id
défen du</w>
du ly</w>
des c
dem ic</w>
attemp ting</w>
Roth -
P r
Dar fur</w>
Con gress</w>
0 3</w>
where ver</w>
t t
t ful</w>
mé pris</w>
gu erres</w>
fon dements</w>
abol ished</w>
B 6-0
pre ference</w>
parven ons</w>
insuffis ant</w>
end rait</w>
cu ba
confron tation</w>
Pl ath</w>
Par agrap
é rément</w>
souff re</w>
résid ence</w>
ori enter</w>
on y</w>
justifi ées</w>
excl us</w>
cra inte</w>
alloc ations</w>
Indon ésie</w>
wi de-
re mon
opt- out</w>
l or
intég rés</w>
go la</w>
favor ise</w>
expli cite</w>
expli cit</w>
délég u
dre w</w>
Rand zi
Dar four</w>
spéci ales</w>
ri ers</w>
quanti ty</w>
pel ine</w>
mill énaire</w>
m ou
insuffis ante</w>
indi quant</w>
imag in
il legally</w>
every day</w>
détru ire</w>
délic at</w>
diff er</w>
derog ation</w>
can c
accep tons</w>
H eure</w>
ste dt</w>
so l</w>
nutri tion</w>
ir re
identi ques</w>
faibl esses</w>
exer ce</w>
cor ner
Sh ould</w>
Sch re
é cl
persuad é</w>
offen sive</w>
fru it
ad vis
ad ding</w>
accep ts</w>
Wor king</w>
R am
OC DE</w>
Banglad esh</w>
An gola</w>
él ève</w>
é rable</w>
stabil iser</w>
res olu
r ust</w>
o- Plath</w>
it i</w>
it ary</w>
ge o
déséqui libres</w>
dé loyale</w>
des per
contin ents</w>
atri ces</w>
at tra
Schre yer</w>
P ra
C al
Ap prov
z es</w>
vi eux</w>
rejet ée</w>
re cip
ran g</w>
phénom ènes</w>
parliament arians</w>
m él
execu tion</w>
demand erai</w>
contraign ants</w>
Randzi o-Plath</w>
Be h
Ad minis
trou bles</w>
ti cul
redun dan
qualit ative</w>
min ors</w>
m as</w>
f auss
en ever</w>
e e</w>
autor ise</w>
arm ées</w>
ag issent</w>
Ank ara</w>
won der
under lined</w>
susp ens</w>
re turned</w>
met é</w>
introdu ites</w>
ga zo
développ e</w>
dépu tée</w>
def ended</w>
Mer kel</w>
tr iste</w>
semb le-t-il</w>
ral ité</w>
prê ter</w>
pren antes</w>
multin ational</w>
mat ch</w>
ir responsible</w>
fer meté</w>
expres sly</w>
abou ti
tsunam i</w>
th oli
ten ed</w>
réf ère</w>
rec ital</w>
rec ession</w>
pru d
mo tor
main streaming</w>
diox ide</w>
conn ais</w>
L ang
threat ening</w>
secur ing</w>
pon ents</w>
min i
incit ation</w>
fo ods</w>
définiti vement</w>
condem nation</w>
ad em
O EC
Concer ning</w>
A4-0 0
élec toral</w>
trace ability</w>
sou p
rédu isant</w>
pré judici
p it
nécess itent</w>
nu l</w>
human e</w>
es tin
déploi ement</w>
dé passer</w>
aff air</w>
z he
vi gou
si an</w>
se es</w>
ré agi</w>
quanti tative</w>
prépar e</w>
preser vation</w>
postpon ed</w>
on line</w>
occid ental</w>
mar i
k -
intéress ées</w>
individu elles</w>
empha size</w>
décou le</w>
ch ol
ach èvement</w>
Pro gress</w>
OEC D</w>
Beh rend
Acc ord</w>
retra ites</w>
plain te</w>
minis terial</w>
mani ères</w>
just es</w>
hand ed</w>
compar e</w>
Regi ons</w>
Behrend t</w>
tr ends</w>
re distribution</w>
jun ction</w>
inves ted</w>
im balances</w>
h ur
er ra</w>
e ase</w>
du rement</w>
defin itive</w>
bre fs</w>
Lors qu&apos;</w>
Jun cker</w>
teach ers</w>
scep tic
pru dent</w>
papi er</w>
liv res</w>
gener ated</w>
fourn issent</w>
facil ité</w>
explo ited</w>
contraign antes</w>
comm ission
appréci é</w>
volon taires</w>
unilatéra le</w>
ri ez-vous</w>
re memb
po m
overwhel ming</w>
néer landaise</w>
l également</w>
inter oper
er ie</w>
en a</w>
dre am</w>
at en</w>
K en
F MI</w>
war rant</w>
tari fs</w>
re verse</w>
produc tions</w>
pen se
inter action</w>
gra d</w>
gn ant</w>
fru stration</w>
ex t</w>
eng lo
ar ises</w>
ar do</w>
ag ues</w>
IM F</w>
witn essed</w>
si f</w>
multination als</w>
massac re</w>
for ums</w>
bac ked</w>
auton ome</w>
t one</w>
sé min
revê tent</w>
qu ick</w>
professionn el</w>
profession als</w>
par lent</w>
horiz on</w>
dép ens</w>
dialo gues</w>
armam ent</w>
Tu es
Approv al</w>
éra dication</w>
play er</w>
lo gi
lai tiers</w>
in capables</w>
flo ttes</w>
désign ation</w>
chyprio te</w>
amén agement</w>
adress ée</w>
O ù</w>
Communi ties</w>
Bas que</w>
symboli c</w>
roo t</w>
reme dy</w>
off rant</w>
man oeuvre</w>
m ail</w>
k ov
dor f</w>
cré ent</w>
cid ent</w>
Perspec tive</w>
An y
10 3</w>
weak nesses</w>
se z-moi</w>
prés enta
pack aging</w>
ons- le</w>
nation alité</w>
ma d
jug é</w>
intensi fication</w>
initi alement</w>
fédé rale</w>
VI H</w>
Tues day</w>
S W
L ev
Com position</w>
Chi rac</w>
6 -
í n</w>
zhe imer</w>
separ ation</w>
ri che</w>
m ers</w>
l ings</w>
in directly</w>
délic ate</w>
bi ological</w>
announ cement</w>
acqu it
No bel</w>
Lang en</w>
E A</w>
Bosni e</w>
œuv rer</w>
zer o</w>
sh am
mutu ellement</w>
i el
guil ty</w>
garantiss ent</w>
compéti tif</w>
chann els</w>
appl au
B us
y right</w>
work force</w>
sympath ie</w>
run s</w>
res cu
médic aux</w>
eri an</w>
enjoy ed</w>
cau sé</w>
bre aches</w>
av ons-nous</w>
as ks</w>
SW IF
G ender</w>
Bal i</w>
signific atifs</w>
oli ve</w>
o ises</w>
mer cury</w>
mainten u</w>
comm et
cle an
J ord
Al zheimer</w>
volon tiers</w>
sh ar
requ iring</w>
pour suivi</w>
p pe</w>
fam ine</w>
endro its</w>
avi on</w>
all evi
Flor ence</w>
Ara bi
souff rances</w>
s lav</w>
performan ces</w>
organi zation</w>
initi ate</w>
idé al</w>
ex pulsion</w>
conn us</w>
apo log
Roth- Behrendt</w>
Bö sch</w>
1 1
p re</w>
inev itable</w>
in ly</w>
in croy
fau lt</w>
extéri eurs</w>
dis sement</w>
av a</w>
ab outi</w>
SWIF T</w>
Quart et</w>
L IF
Flor enz</w>
Cu ban</w>
vois in</w>
tur ns</w>
saf er</w>
ob struc
l ap
knowledg e-based</w>
fran chement</w>
automob iles</w>
appar ition</w>
adap tées</w>
E AN</w>
A th
écou te</w>
éc u</w>
è ques</w>
wonder ful</w>
pro té
poulo u</w>
pertin ente</w>
multil atéral</w>
mauv aises</w>
ing érence</w>
in put</w>
fédé ral
exp and</w>
exer t</w>
dé rou
concern ée</w>
ar is
Rob ert</w>
Qu a
P an
we b</w>
un itaire</w>
top ical</w>
t elling</w>
spéci aux</w>
rév èle</w>
plat form</w>
o te</w>
mi x</w>
lanc ée</w>
divi de</w>
destru c
atte intes</w>
ambigu ous</w>
Colle ge</w>
tu ne</w>
thin ks</w>
progres sion</w>
produ ise</w>
no tic
mod est</w>
ma ison</w>
doc tr
diagno s
cu s</w>
critic ise</w>
compren ons</w>
b oy
G A</w>
F EM</w>
AS EAN</w>
tra ient</w>
sub ir</w>
sinc ères</w>
m ant</w>
inscr its</w>
fer mes</w>
exécu tif</w>
ex cus
couver ture</w>
con vers
ch air</w>
allég ations</w>
Ha iti</w>
H aï
Bow is</w>
rembour sement</w>
positi vely</w>
n ings</w>
modern iser</w>
impli es</w>
ev ol
di m
determin ing</w>
co ins</w>
élev eurs</w>
ver sions</w>
urg ed</w>
tra î
ter ie</w>
tar di
t less</w>
sign als</w>
scru pul
k land</w>
impli quent</w>
fréqu emment</w>
del ayed</w>
céré ales</w>
al liés</w>
P S</w>
Musli m</w>
Busin ess</w>
respec tifs</w>
probl ematic</w>
pass ons</w>
ordin aires</w>
lib an</w>
hér itage</w>
dépens é</w>
déf end</w>
célé b
compl ement</w>
bann ing</w>
as ser
al li
S te
Dim as</w>
Ch ac
C ologne</w>
univers elle</w>
tun nel</w>
th o
specifi ed</w>
port es</w>
pi peline</w>
philosoph y</w>
mid dle</w>
mar ins</w>
l ance</w>
déb lo
consul té</w>
ban ana</w>
Kar as</w>
Bur undi</w>
A ri
ré affirmer</w>
pre ment</w>
p t</w>
milit arisation</w>
low est</w>
intimi dation</w>
interopéra bilité</w>
fashi on</w>
exis tait</w>
eli gible</w>
ar ab
war s</w>
trans lation</w>
thir dly</w>
t s
profon des</w>
philosophi e</w>
parti ci
it en
illust re</w>
en forced</w>
e-t- elle</w>
de fici
cô tières</w>
counterfe iting</w>
consolid ated</w>
appro ving</w>
ad journ
Qu ite</w>
P as</w>
N az
Certa inly</w>
wide- ranging</w>
trans plan
selec tion</w>
s an</w>
public ly</w>
provo quer</w>
pos session</w>
lan ges</w>
intéress és</w>
détaill é</w>
comb ination</w>
bac ks</w>
adress é</w>
Roth ley</w>
ï n
á n</w>
v endre</w>
tomb er</w>
survi ve</w>
serv ed</w>
l ler</w>
figu rer</w>
dem i-
bl ind</w>
appréci ation</w>
A4-0 3
é tri
reconn ue</w>
prefer red</w>
po orer</w>
nul lement</w>
norm ally</w>
fructu euse</w>
form idable</w>
fi d
do ive</w>
continu eront</w>
blanch iment</w>
b ing</w>
Initi ative</w>
Cast ro</w>
Bu iten
éten du</w>
v an
u res</w>
te ga</w>
p raise</w>
mer it</w>
macro economic</w>
instruc tions</w>
faibl esse</w>
elimin ating</w>
cou vert</w>
cont re-
concent rated</w>
capa cities</w>
ach ever</w>
M il
E CO
Del ors</w>
y iel
un like</w>
privil eged</w>
pi on
peut- elle</w>
onn ements</w>
miss ed</w>
laun dering</w>
in ventions</w>
form ations</w>
enthusias m</w>
ent reti
ce as
K ir
Ber ès</w>
Bang emann</w>
Balk an</w>
th on</w>
t ories</w>
sur venus</w>
respon ded</w>
on to</w>
o is
g ed</w>
f lag</w>
ev olution</w>
emer ge</w>
détéri oration</w>
bl ack
ba ï
Un til</w>
supéri eure</w>
requ ise</w>
profon d</w>
porno graphi
ir ré
individu elle</w>
ga ins</w>
fisher y</w>
cu l</w>
combusti bles</w>
S tu
Or tega</w>
A rea</w>
équ ité</w>
vou lions</w>
threat en</w>
sauve garder</w>
propor tions</w>
licenci ements</w>
jug és</w>
institu ant</w>
dél its</w>
conc evoir</w>
con junction</w>
appli qués</w>
AC P-
viol ated</w>
réserv é</w>
rassembl er</w>
offici el</w>
gra ss
for ce
ex ag
dist ances</w>
differ ently</w>
ati quement</w>
aband oned</w>
Ukraini an</w>
Le inen</w>
Fran ç
Bour langes</w>
Blo kland</w>
stri kes</w>
pun ished</w>
préco ce</w>
proportionn alité</w>
coupa bles</w>
contra ints</w>
T ob
vers ement</w>
to ys</w>
ever -
devo te</w>
atti ré</w>
ai ting</w>
Roc ard</w>
Chan cel
wa ke</w>
trilo gue</w>
men tions</w>
intellig ente</w>
confron té</w>
co ïn
N either</w>
publi quement</w>
pro longer</w>
mo ves</w>
hali eutiques</w>
affec ter</w>
V ig
Paragrap h</w>
Afgh an</w>
ta pe</w>
satis faite</w>
renouv ellement</w>
pa in
fon der</w>
fe els</w>
favor isant</w>
extra ction</w>
enregist rés</w>
con tiennent</w>
communic ate</w>
c ac
améli o
accord -cadre</w>
N ext</w>
évo que</w>
éth iques</w>
termin é</w>
révis er</w>
préci euse</w>
par fait</w>
iter ait</w>
expres ses</w>
ex position</w>
disap pointment</w>
demeur ent</w>
cal cul</w>
Le on
én dez</w>
swif tly</w>
opportu ne</w>
indépend antes</w>
il er</w>
fulf illing</w>
foo ting</w>
effor ce</w>
detri mental</w>
coloni es</w>
Personn ellement</w>
K all
D C</w>
si n</w>
per mission</w>
ol ympi
mar in</w>
lingu istiques</w>
hou se
h one</w>
ess aie</w>
ent rent</w>
enregistr é</w>
con vey</w>
éventu els</w>
éra diquer</w>
tionn ellement</w>
symbo le</w>
soign eusement</w>
reform ing</w>
pu y</w>
non- prolifération</w>
mi gr
euro zone</w>
ear -
du c</w>
compar ables</w>
ck x</w>
anis m</w>
al lez</w>
administr atif</w>
Wall is</w>
Vi ê
tion ality</w>
re e</w>
préf éré</w>
minor itaires</w>
isi ble</w>
derog ations</w>
ac adem
Rw anda</w>
resid ents</w>
présid ences</w>
proportion ality</w>
motiv ation</w>
habit ant</w>
ex poser</w>
es cl
belong ing</w>
banc aires</w>
banan as</w>
au l
assist ons</w>
Ster ckx</w>
A ux</w>
vo tera</w>
suspend re</w>
sit ue</w>
ré ciproc
rejec ting</w>
né o
in égalité</w>
flé au</w>
enta ils</w>
dé mon
t z</w>
réciproc ité</w>
lic ite</w>
découl ent</w>
dé penser</w>
diox yde</w>
aw aiting</w>
av eu
R en
L à</w>
I cel
An ge
Ab k
rev it
po ne</w>
fa ille</w>
dis advantage</w>
anci ennes</w>
Chancel lor</w>
w all</w>
tr ente</w>
to wn</w>
structu red</w>
simultan e
renfor cera</w>
re joint</w>
pli t</w>
oy le</w>
m ai
lob by</w>
iss es</w>
in car
distor sion</w>
cy n
Ri o</w>
Pé kin</w>
K au
Gu erre</w>
C ap
w il
tremend ous</w>
tradi tionnels</w>
structu rel</w>
spec tre</w>
propri étaires</w>
poulo s</w>
notic ed</w>
hypocr isie</w>
hand led</w>
gui ded</w>
demonstr ations</w>
co financing</w>
charg és</w>
autom atiquement</w>
Rü big</w>
Equ al</w>
v ain
ter ne</w>
scand ale</w>
ri c</w>
onn aires</w>
l ad
i ans</w>
formul ated</w>
dis ability</w>
cré és</w>
cop yright</w>
b om
an gul
ac u
An g
tari ffs</w>
sal aries</w>
quanti ties</w>
pre stations</w>
p ires</w>
musul mans</w>
f illes</w>
dou bler</w>
do ors</w>
adjust ments</w>
M ari
A4-0 2
- là</w>
soulign ant</w>
reas sure</w>
publ ish</w>
précis é</w>
identi que</w>
handicap és</w>
hal t</w>
faill ite</w>
f ou
détermin é</w>
diff us
To gether</w>
D oyle</w>
ô mes</w>
étran ge</w>
understand able</w>
touch é</w>
suppli ers</w>
poursu ivent</w>
nom inal</w>
minim ale</w>
intoler able</w>
fa stes</w>
ent i</w>
deteri oration</w>
d jan</w>
4 .
voyag eurs</w>
support ers</w>
periph eral</w>
optimis tic</w>
intéres santes</w>
infring ements</w>
eu e</w>
couver tes</w>
continu ous</w>
accoun table</w>
P V
F A
Am nesty</w>
sty le</w>
refu ge</w>
reform ed</w>
l iter
kur de</w>
gar di
des quelles</w>
Azer bai
év itable</w>
slova que</w>
sensi tivity</w>
s we
s enten
preser ving</w>
post pone</w>
per turb
identi fying</w>
envisag é</w>
envelopp e</w>
déplac ées</w>
distribu é</w>
dispar aître</w>
évo quée</w>
sé che
parti san</w>
ori al</w>
né fastes</w>
inter medi
flexi bles</w>
excu ses</w>
esti mer</w>
en cl
dégra dation</w>
compét ents</w>
ch ev
F ar
è vre</w>
ver rons</w>
ré pres
prot ège</w>
propos ent</w>
min ds</w>
manifes ter</w>
mani pul
l isted</w>
fruit ful</w>
forê t</w>
condem ning</w>
cat aly
boo k</w>
C eux-ci</w>
Bo ard</w>
us agers</w>
twent y-
soci alist</w>
re actions</w>
justifi able</w>
inévit ablement</w>
go slav</w>
emp h
d ating</w>
continu ity</w>
constitu erait</w>
clu bs</w>
au gu
Yu goslav</w>
S everal</w>
LIF E</w>
G AT
wor th
tox ic</w>
sym p
sub ven
sou pl
s qu
reconci le</w>
mesu rer</w>
légu mes</w>
insec urity</w>
illég ales</w>
fran kly</w>
e rez</w>
contrôl ée</w>
consul t</w>
compl ementary</w>
boun d
appear ance</w>
adjourn ed</w>
F ern
proxim ité</w>
pes er</w>
occup ent</w>
médec ins</w>
ministéri elle</w>
marg in</w>
high- level</w>
g ets</w>
di es
bil lets</w>
ban ais</w>
S ing
Regu l
1 30</w>
évo qués</w>
v astes</w>
symbo l</w>
introdu ite</w>
feasi ble</w>
effond rement</w>
Abk haz
tin a</w>
shor tage</w>
scandal eux</w>
provi ennent</w>
per form</w>
offer tes</w>
dil em
compéti tifs</w>
Qu els</w>
so ft</w>
ré cup
per ce
il -
hect ares</w>
fl am
enti ties</w>
che- Orient</w>
cer ti
au sp
an ger</w>
absor ption</w>
W he
Pro che-Orient</w>
PC P</w>
v ég
v ain</w>
tw are</w>
quelques- uns</w>
qua ke</w>
mar di</w>
ligh ting</w>
géné rer</w>
forec as
fac ul
complain t</w>
arrê té</w>
acqui red</w>
Sev enth</w>
Organi zation</w>
éch o</w>
tr um</w>
swi ft</w>
reconn us</w>
rapid ité</w>
prov isi
pro prement</w>
o zone</w>
form ed</w>
dépend ra</w>
différ ends</w>
bro ken</w>
ati vity</w>
un its</w>
transfrontali er</w>
symboli que</w>
sub stitution</w>
prag matique</w>
pa vill
montr ant</w>
exis ted</w>
ell i</w>
décenni e</w>
déc ev
de regulation</w>
confron tées</w>
broadcas ting</w>
K alin
2000- 2006</w>
vo tons</w>
rel â
mes sieurs</w>
l v
in grad</w>
es- nous</w>
commencer ai</w>
ati e</w>
Si erra</w>
ter ra
su n
re unification</w>
nordi que</w>
judg es</w>
fa ster</w>
expen ses</w>
compon ents</w>
assassin at</w>
W ynn</w>
up date</w>
sur croît</w>
sensi bilité</w>
s plit</w>
s li
ré pan
représent é</w>
oppos ants</w>
lour de</w>
incorpor ation</w>
convin cing</w>
all y-
T or
Conserv ative</w>
B en
- dessus</w>
stu pé
prev ail
prefer ences</w>
ow ners</w>
judg ments</w>
in formel</w>
hes it
fra g
figu rant</w>
fav oured</w>
développ ée</w>
dé passé</w>
chapit res</w>
cel e
Conserv atives</w>
tra giques</w>
ti a</w>
parti al</w>
oubli é</w>
li zation</w>
gen ous</w>
distor tions</w>
descri be</w>
coura geous</w>
candid ature</w>
anim ales</w>
Observ atoire</w>
I A</w>
well- being</w>
tor tu
quali fication</w>
mis ère</w>
meur ent</w>
guid ance</w>
déploy er</w>
defin itions</w>
char ter</w>
ar me</w>
Poli tical</w>
In novation</w>
Car di
tag on
sh ame</w>
rein forcing</w>
regret tons</w>
promp t</w>
pre station</w>
nô tre</w>
non- respect</w>
gir ls</w>
ent ré</w>
criti quer</w>
ci ble</w>
b res</w>
autonom ous</w>
al lies</w>
adap ting</w>
F ab
Chac un</w>
scand al</w>
repr end</w>
produ ite</w>
pl aide</w>
massac res</w>
manipu lation</w>
it ting</w>
int enti
extrémis tes</w>
dérou le</w>
dis proportionate</w>
diplom atie</w>
dies el</w>
cré ativité</w>
cland estin
arbitr ary</w>
appl aud</w>
abo tage</w>
Con grès</w>
under lines</w>
transatlanti ques</w>
sach ant</w>
offici ally</w>
muni cipa
connex ion</w>
co ast</w>
chil d
acqu érir</w>
V I</w>
Cardi ff</w>
- related</w>
tur cs</w>
ten eur</w>
summar y</w>
soupl esse</w>
renforc ées</w>
re di
pass ent</w>
os ting</w>
nom s</w>
f ill</w>
encourag é</w>
disap pointing</w>
cr is</w>
conf érences</w>
col on
clon age</w>
ces sez-
carri ère</w>
be ars</w>
b attre</w>
app auv
V ol
Tit ley</w>
Mosco w</w>
Hau g</w>
Déclar ation</w>
ter rest
ste ad
ron s-nous</w>
propag ande</w>
mom entu
momentu m</w>
lob b
interoper ability</w>
h of
g aps</w>
ex terne</w>
deli very</w>
co d</w>
ambiguï té</w>
advoc ates</w>
Serbi an</w>
I ci</w>
sus pend</w>
r endant</w>
ma fi
issu ing</w>
exper im
emp ty</w>
ell s</w>
depri ved</w>
co st-
charg ed</w>
atten du</w>
Mosco u</w>
Is lands</w>
Haï ti</w>
sû res</w>
redundan cies</w>
peut- il</w>
loc k</w>
incid ences</w>
fourni e</w>
em porary</w>
demonstr ating</w>
de fe
cris y</w>
con viens</w>
auth ors</w>
atta ches</w>
arm és</w>
aler te</w>
Mit ch
Lu k
Kalin ingrad</w>
1 10</w>
pou l
nis tri
muni a</w>
inter locu
doc tors</w>
dis e</w>
coû te</w>
associ é</w>
Al munia</w>
wh enever</w>
socio- économique</w>
second ary</w>
ré per
purch ase</w>
ph ases</w>
offer te</w>
le- feu</w>
ing redi
har ass
h a</w>
fac tu
earth quake</w>
contribu eront</w>
aris en</w>
J er
w est</w>
v œ
slov ène</w>
sk y</w>
op ponents</w>
lear nt</w>
ent é</w>
enn em
cessez- le-feu</w>
carri ers</w>
b and</w>
atten tive</w>
Cor rec
w ind</w>
v écu</w>
termin erai</w>
sus citer</w>
sub issent</w>
st range</w>
sof tware</w>
rel uc
refl éter</w>
par viennent</w>
oppos ent</w>
matéri aux</w>
l endem
intég ralité</w>
cel eb
all er
Mitch ell</w>
Fer ber</w>
Europ e-
Accord ingly</w>
6 .
émer gence</w>
un satisfactory</w>
sign ale</w>
rou ge</w>
ref using</w>
pou n
ma tu
famili ales</w>
dis turb
countr y
commen cent</w>
appl ause</w>
S itu
S av
E TA</w>
vo iture</w>
tol érer</w>
sel ling</w>
norm alement</w>
hop ing</w>
ha ine</w>
form elle</w>
engag ées</w>
conven tional</w>
ad map</w>
P eter
IL O</w>
H an
F oun
Bar ing
vit ally</w>
urba ines</w>
ré examiner</w>
re fra
per mits</w>
pens é</w>
may be</w>
jan i</w>
is s</w>
hypo crisy</w>
gene tic</w>
compati bilité</w>
ch ées</w>
boy cot
adap té</w>
Sou thern</w>
ver dic
ta la</w>
t to</w>
sei ze</w>
s adly</w>
rich esses</w>
re ty</w>
pen sioners</w>
in évitable</w>
et- Herzégovine</w>
enseign ements</w>
désast re</w>
dec omm
capa bilities</w>
bloc ked</w>
att ended</w>
ad vers
O M</w>
Guin ea</w>
Bosnie- et-Herzégovine</w>
Baring dorf</w>
work er</w>
vi demment</w>
troisi èmement</w>
se emed</w>
refer endums</w>
re fon
re alities</w>
qui conque</w>
imp unité</w>
fin ished</w>
dom ination</w>
discrimin atoire</w>
diplom acy</w>
comp tent</w>
Mor illon</w>
Her man</w>
ã o</w>
z u</w>
souff ert</w>
sci ences</w>
re production</w>
inten sité</w>
in directement</w>
dispositi fs</w>
de ployment</w>
collec tives</w>
ch ur
cau tion</w>
bi es</w>
ausp ices</w>
as i</w>
aff ord
Pro f
Me dia</w>
Hau tala</w>
Ge b
é ances</w>
spec trum</w>
sacri fices</w>
re couv
pres ta
jou issent</w>
indi genous</w>
chan tiers</w>
bl u
b loo
a î
F ord</w>
C e
touch ant</w>
r endra</w>
propag anda</w>
participa ted</w>
p ity</w>
org ans</w>
magni fi
frau des</w>
dép ôt</w>
dé montrent</w>
de ar</w>
d ants</w>
cin qu
E sta
C ari
Amon g</w>
rê ve</w>
rou tiers</w>
nation ality</w>
liber ties</w>
ins istance</w>
fi èvre</w>
en em
de gra
Vig o</w>
Mi gu
rencont rés</w>
re an</w>
quar ter</w>
peu pl
muni cip
loc ated</w>
li ti
garanti s</w>
ent y</w>
d d
conf is
AS EM</w>
A D
éc ras
w rite</w>
vice- présidente</w>
uti n</w>
us ses</w>
under -
sor tes</w>
réclam er</w>
ro y
ren voi</w>
qu ants</w>
mutu el</w>
lendem ain</w>
f light</w>
f .</w>
entre tenir</w>
enti rety</w>
ef e</w>
dé pense</w>
cl oning</w>
c ards</w>
béta il</w>
bureaucrati ques</w>
UC LAF</w>
rencontr ent</w>
n ette</w>
j k</w>
g éri
affec tent</w>
P utin</w>
Cu stom
w ave</w>
poursu ites</w>
oppos ée</w>
mach ine</w>
for th</w>
financ ées</w>
faç ons</w>
dis armament</w>
contradic tory</w>
au st
affir ment</w>
Lam a</w>
Fe ira</w>
volati l
té moins</w>
tech ni
se ats</w>
redun dant</w>
nor male</w>
g est</w>
diffici lement</w>
c attle</w>
bon ds</w>
G auche</w>
E sp
wit ness</w>
week end</w>
tri b
tox iques</w>
garanti ra</w>
compens ate</w>
ban k
appropri ately</w>
Pou tine</w>
Gra efe</w>
Geb hardt</w>
univers ity</w>
spir itu
souti endrons</w>
occup és</w>
honn êtes</w>
forese en</w>
drin king</w>
concurr ents</w>
rassu rer</w>
radi cale</w>
pré tend</w>
pertin ents</w>
m us
lég alité</w>
f aut-il</w>
exc ise</w>
en land</w>
défin itions</w>
déc lin</w>
do s</w>
S us
En core</w>
whol ly</w>
ti ré</w>
secre ts</w>
s pre
régu lier</w>
re im
excep tionnelle</w>
en di
effectu ées</w>
Lam fal
z bol
subs cri
simultan ément</w>
signi fication</w>
pré tendre</w>
pre- accession</w>
por tait</w>
pe du
laun ching</w>
l ining</w>
arri vent</w>
Can aries</w>
é tent</w>
zbol lah</w>
tu zz
sph ère</w>
si vely</w>
si bles</w>
ridi cul
pes sim
opérationn els</w>
en voie</w>
custom ers</w>
comp étent</w>
V all
Lam pedu
Industri al</w>
E l</w>
Azerbai jan</w>
-t- on</w>
undermin ing</w>
ste el</w>
pacifi ques</w>
matern ity</w>
lobb ying</w>
inv ités</w>
elec torate</w>
ati vely</w>
Custom s</w>
Azer baï
9 .
transport ation</w>
reve aled</w>
pro file</w>
pa ces</w>
nav ire</w>
mu gg
expec ting</w>
en berg</w>
con joint</w>
con gestion</w>
collè ge</w>
cab ill
Ra ther</w>
Lampedu sa</w>
En t
E h</w>
réjou it</w>
ré sumer</w>
reim bur
recep tion</w>
mer its</w>
mar quer</w>
introdu ces</w>
impos ée</w>
imp unity</w>
fre t</w>
consult atif</w>
ch air
cess é</w>
cau ght</w>
Ver hof
S au
Correc tions</w>
Bulgar ian</w>
twent y</w>
sign ée</w>
restric ting</w>
oper ates</w>
of i</w>
n és</w>
muni tions</w>
intitu lé</w>
cr u</w>
accor dées</w>
aband onn
O ver
t wel
recev ront</w>
pré cip
manifes té</w>
iti me</w>
interf ere</w>
inter pr
in land</w>
graph y</w>
explo sion</w>
explan atory</w>
compos ante</w>
bio technology</w>
bil atéral</w>
attribu er</w>
apolog ise</w>
ab sol
Se attle</w>
sl o</w>
s cour
permet tez</w>
pas sive</w>
particip ant</w>
parti el</w>
harmon ising</w>
fai rer</w>
allou é</w>
U l
N am</w>
G arri
Ch er
7 .
wish ing</w>
uss y</w>
tent ri
répar ation</w>
organi zed</w>
import és</w>
i ron
h at
g ers</w>
coop ér
ater ally</w>
ag res
Verhof stadt</w>
tour ne</w>
sent ences</w>
qu ait</w>
inspir ation</w>
hi de</w>
g y-
eu s</w>
devast ating</w>
agre eing</w>
ad mis</w>
Trans nistri
Mar t
Mar itime</w>
C O</w>
seri ousness</w>
présidenti elles</w>
lig ence</w>
lan gage</w>
high lighting</w>
fond ations</w>
favor is
diagnos tic</w>
O slo</w>
K ofi</w>
H eureusement</w>
Glob al</w>
C D
weak en</w>
reciproc ity</w>
prov ing</w>
per c
oeu v
luxembourge oise</w>
indu bit
fédé ral</w>
aucu ns</w>
affai bli
Gro ss
Con tra
Azerbaï djan</w>
vis ing</w>
transf érer</w>
supran ation
s mugg
pénu rie</w>
ou est</w>
noy e</w>
menac és</w>
mem ory</w>
deven us</w>
depl ore</w>
de ploy
bâti ment</w>
assu rée</w>
Lu d
G ul
ultéri eurement</w>
réalis ations</w>
prev ail</w>
lim ités</w>
journ aux</w>
it ment</w>
es cape</w>
dé signé</w>
distinc t</w>
dg es</w>
ay ez</w>
a z</w>
Th om
P ouv
L I
vi ability</w>
toxic om
réun is</w>
resor t</w>
redev ances</w>
qu a</w>
prom eu
mur dered</w>
harmoni zation</w>
ev en
enten dus</w>
da c</w>
any where</w>
activis ts</w>
Vo ici</w>
Sloven ian</w>
Pers onally</w>
Lan noye</w>
Lamfal ussy</w>
Foun dation</w>
Euro dac</w>
équi pes</w>
week -
so i
renation alisation</w>
remo te</w>
pl aît</w>
op i
gu ard</w>
formu la</w>
coll ab
chin oises</w>
atmosph ère</w>
The ato</w>
Ta ï
Situ ation</w>
- delà</w>
éventu el</w>
thé rap
s ap
rev ise</w>
port e-
o th</w>
mala des</w>
ju ges</w>
h r
ge ared</w>
dé ception</w>
con çu</w>
bri dge</w>
ad or</w>
abor dées</w>
N ass
Grou pe</w>
éli ens</w>
suspici on</w>
rationn elle</w>
per mets</w>
ori ented</w>
occa sionn
medic ine</w>
isol ement</w>
eur ship</w>
dispar u</w>
couv rant</w>
ch ester</w>
apparten ant</w>
amen é</w>
Mu ch</w>
Me an
é changer</w>
tra i</w>
thou ghts</w>
standardis ation</w>
reço it</w>
potenti ellement</w>
pilo tes</w>
law yers</w>
in su
fo c
financi ally</w>
e keeping</w>
depend ency</w>
affai blir</w>
S am
In dian</w>
For tun
5 0
É videmment</w>
succ esses</w>
o dy</w>
irani en</w>
ir responsable</w>
fil m</w>
fam ous</w>
enta il</w>
empê chent</w>
dis mant
codi fication</w>
at om
No ël</w>
Š pid
Špid la</w>
viv ants</w>
val ent</w>
the tic</w>
souti enne</w>
scandal ous</w>
pursu it</w>
organis ées</w>
mobi les</w>
dra ws</w>
cro it</w>
consta t</w>
capit ales</w>
Th ree</w>
H ow
Fortun ately</w>
EC R</w>
é min
ty p
sensibil iser</w>
rel aun
prohibi tion</w>
marqu age</w>
doctr ine</w>
cô te</w>
condamn és</w>
ch ai
alloc ate</w>
T R
S tre
Icel and</w>
Bon n</w>
tur ques</w>
subs iste</w>
stre ets</w>
parti te</w>
op ens</w>
là- dessus</w>
lif ting</w>
iraki en</w>
inf lig
fic tif</w>
exerc ée</w>
encoura ge
cooper ating</w>
ax ée</w>
Pra gue</w>
FA O</w>
thir ds</w>
sur prising</w>
s wit
rapp ell
mutu ally</w>
k illing</w>
im a</w>
far deau</w>
dis sid
det tes</w>
billi ons</w>
R D</w>
Puis que</w>
trou ble</w>
stre am</w>
ship y
respec tée</w>
re tenu</w>
pers on
hom og
depend ing</w>
de par
commun istes</w>
aéro port</w>
autom atic</w>
alleg ed</w>
Leon ardo</w>
CI T
uti lement</w>
tari f
sh o
sep tentri
reta ined</w>
représent és</w>
recomm ends</w>
pré limin
pre condition</w>
min ing</w>
ivi es</w>
inspec tors</w>
i ka</w>
g ène</w>
fal si
dériv és</w>
dépl or
an tive</w>
Guan tan
9 -
0. 000</w>
un ités</w>
touch ed</w>
ti endrons</w>
them e</w>
terri bles</w>
pre judice</w>
pos és</w>
mon sieur</w>
fra me</w>
et ête</w>
envisag ée</w>
emphas ising</w>
emp i
dem eu
care er</w>
barb ari
au rez</w>
amélior ant</w>
advoc ated</w>
Nor v
Gross etête</w>
Con federal</w>
vo l</w>
strength ens</w>
self- determination</w>
réit érer</w>
ro se</w>
liber ty</w>
it t</w>
démographi ques</w>
ad here</w>
ad er</w>
U R
Guantan am
subst antive</w>
reques ting</w>
re connues</w>
r is</w>
peti tions</w>
it y-
indé ni
h l</w>
do r</w>
comp tons</w>
O IT</w>
El ec
Ar mé
Alb anian</w>
ti an</w>
the ory</w>
tarif aires</w>
pe ines</w>
pan el</w>
meth od
fix ée</w>
f rap
diri ger</w>
contribu ant</w>
confer ences</w>
Esp érons</w>
E thiop
ér on
w a</w>
ver sible</w>
undermin ed</w>
the re
t- wing</w>
sor tie</w>
ridi cule</w>
pl ed</w>
out line</w>
organis ms</w>
no té</w>
k id
formul ate</w>
fil ms</w>
fan tas
famili al</w>
ess ais</w>
dégag é</w>
capit alist</w>
cap ture</w>
bâ tir</w>
bre aking</w>
ap an
ad ra
P ir
Guantanam o</w>
D aul</w>
Christ mas</w>
équ ivalent</w>
poin te</w>
perpet ra
men és</w>
indubit ablement</w>
g -
financi èrement</w>
diff é
condol éances</w>
ar i</w>
N ob
Mean while</w>
Mc K
Luk as
In stru
19 80</w>
yan mar</w>
work able</w>
week- end</w>
subsid y</w>
rigou reux</w>
op pres
oc é
manufac ture</w>
foun ding</w>
fi ting</w>
excessi f</w>
enseign ants</w>
co ver
clu b</w>
appar u</w>
Sal af
M éndez</w>
ter ly</w>
siè ges</w>
sh ore</w>
recru tement</w>
re rons</w>
préal ables</w>
produ ites</w>
pira cy</w>
n ar</w>
mit tedly</w>
mis leading</w>
mi rac
jour ney</w>
idé ologie</w>
fron tiers</w>
deliber ations</w>
conduc ting</w>
chap ters</w>
be au</w>
S port</w>
J ean</w>
Direc tora
sev e
prim aire</w>
gro wn</w>
ent our
dess ous</w>
depart ments</w>
compren ant</w>
clo thing</w>
avi ez</w>
arm ements</w>
argu ed</w>
a éron
Phili pp
ED F</w>
échapp er</w>
small -
reconna issent</w>
dés esp
dismant ling</w>
connec tions</w>
co stly</w>
b ord
annex es</w>
ann on
Oc cident</w>
McK enna</w>
M yanmar</w>
én onc
ég ale</w>
us ines</w>
tri alogue</w>
re viend
prolong ation</w>
offic ers</w>
leng thy</w>
l ers</w>
illu sion</w>
do té</w>
compl em
compati bility</w>
appar aissent</w>
Rec omm
N ew
Cambo dia</w>
worth while</w>
quasi ment</w>
quanti t
mati cally</w>
fix ant</w>
fe ed
excell ents</w>
déloc alisations</w>
dis covered</w>
crimin elles</w>
contin u</w>
civil isations</w>
cabill aud</w>
augment ent</w>
africa in</w>
adh ère</w>
accu sation</w>
Wi j
Lud ford</w>
An nu
ém ises</w>
verdic t</w>
sign és</w>
réguli ère</w>
respectu eux</w>
re jets</w>
ran ca</w>
radi ation</w>
pre t
ony me</w>
m outh</w>
inspec teurs</w>
ing rédi
fin ds</w>
construc teurs</w>
am or
Nor way</w>
2 2
épar gn
simpl er</w>
senten ced</w>
s te</w>
ri ce</w>
positi vement</w>
or ge</w>
modes te</w>
meaning ful</w>
l end</w>
introdu its</w>
indi gnation</w>
ide ology</w>
do ig
diminu é</w>
collec ted</w>
ave z-vous</w>
Tro is</w>
Ta jani</w>
- based</w>
ï ka</w>
transit oires</w>
sag esse</w>
rigou reuse</w>
provo cation</w>
parti ally</w>
nu ire</w>
in condi
forecas ts</w>
divor ce</w>
d in</w>
autor isée</w>
ap est</w>
af ou
ab stra
P ren
Fin alement</w>
thre e-
pré rogatives</w>
it- on</w>
iss antes</w>
has ard</w>
eng endre</w>
conf é
combin aison</w>
appli quant</w>
Salaf ranca</w>
D ru
CIT ES</w>
épidémi e</w>
we g</w>
spe aks</w>
sign aux</w>
sh are
s m</w>
propag ation</w>
partici per
par vient</w>
p et
no ci
naturel s</w>
incontes tablement</w>
form ellement</w>
do tée</w>
comb at
be an</w>
affec tées</w>
accu ra
Isra éliens</w>
Gul f</w>
G ar
s ends</w>
regre ts</w>
pass ées</w>
mom ent-
migra tory</w>
go ver
fossi l</w>
dee pening</w>
dan oise</w>
b afou
alar man
K i
Jour née</w>
su ivent</w>
stipul ates</w>
scen ario</w>
r ô
pli cations</w>
on gs</w>
multilatéra le</w>
intég ralement</w>
g rap
func tional</w>
enqu ê
concent rations</w>
ci ous</w>
awar ded</w>
ap port</w>
affirm ant</w>
W ar
Ta liban</w>
S ur
Buiten weg</w>
ss oni</w>
si fs</w>
ré putation</w>
j i
frag il
c f.</w>
bel ongs</w>
adap tés</w>
acqu ise</w>
V en
Fra ssoni</w>
Annu al</w>
éti ques</w>
seve rely</w>
set tled</w>
ser be</w>
ration alisation</w>
pre mature</w>
par ental</w>
pa tern
p ani
om in
o ï
menti oning</w>
k et</w>
imperi alist</w>
ges te</w>
exige ant</w>
cra indre</w>
contradic toires</w>
compa tri
communi qué</w>
b le
P ur
O R</w>
Nu clear</w>
Ken ya</w>
Is lande</w>
ur gentes</w>
ti lation</w>
suici de</w>
sous cris</w>
rescu e</w>
recogni ze</w>
nav ale</w>
n ord-
modern ise</w>
mo teurs</w>
inter roger</w>
industri alised</w>
har d
exce ed</w>
débar rass
dou anes</w>
correspon dent</w>
conf ère</w>
com pagne</w>
abat tage</w>
Taï wan</w>
Rom puy</w>
Contra irement</w>
C ab
4 0
suspec ts</w>
shoul der</w>
rh et
remar qué</w>
quali fié</w>
prohib ited</w>
pollu ants</w>
origin ale</w>
mix ed</w>
lab els</w>
in conv
inconv éni
identi cal</w>
ex- Yougoslavie</w>
démocra te</w>
dis cré
correc tions</w>
compli qué</w>
circul er</w>
bas er</w>
allem ands</w>
air line</w>
Nass auer</w>
Guin ée</w>
super -
personn els</w>
gui ding</w>
fluctu ations</w>
exécu tions</w>
exempl aire</w>
differ ing</w>
ci els</w>
b oul
arab es</w>
S án
Mo z
FE D</w>
A id</w>
0, 000</w>
équip ement</w>
v ar
total itarian</w>
sou ches</w>
smo oth</w>
répon dant</w>
re tenue</w>
re si
préoccup é</w>
ow ing</w>
obli ger</w>
no table</w>
menac ent</w>
matern elle</w>
inform ing</w>
hu ile</w>
hear ings</w>
go od
fi ance</w>
examin ées</w>
em i
diffé remment</w>
acc ises</w>
absten tion</w>
P eter</w>
P E
C S
Acc ession</w>
étro it</w>
v ins</w>
restre indre</w>
recommand er</w>
protes ts</w>
physi ques</w>
p au
o we</w>
jeopardis e</w>
ins is
in fin
h â
g esti
fre quent</w>
fo ld</w>
et h</w>
destro ying</w>
ch i</w>
bloc king</w>
auto détermination</w>
approuv ées</w>
è tre</w>
vi gn
sub ordin
she ep</w>
repres sive</w>
négli ger</w>
mal aria</w>
entraî nent</w>
end rez</w>
déci dée</w>
cons entement</w>
competi tors</w>
bloc age</w>
amélior ent</w>
aggra ver</w>
Ag ain</w>
é matiques</w>
weak ness</w>
un ite</w>
tes ted</w>
rép ét
réguli ers</w>
pon dé
pertin ence</w>
la issent</w>
ins isted</w>
inclu ant</w>
ill er</w>
er ly</w>
deliber ately</w>
con for
accessi bilité</w>
Lukas hen
Go th
z be
toler ate</w>
tend ency</w>
re trouve</w>
pain ful</w>
glob ally</w>
en burg</w>
e- forme</w>
douani ères</w>
decre ase</w>
coun ting</w>
compro mettre</w>
c ture</w>
Norv ège</w>
Jac k
v eterinary</w>
ré publique</w>
re stra
na ï
mo thers</w>
inclu ent</w>
fi er
e x</w>
continu ally</w>
Tur ning</w>
Le one</w>
ti er
sec ours</w>
ru m
rob ust</w>
préven tive</w>
pre dec
neutra l</w>
m ères</w>
k new</w>
inju red</w>
déséqui libre</w>
cooper ative</w>
bi gger</w>
ban ane</w>
appreci ated</w>
all s</w>
H op
C elles
tradi tionnelle</w>
sé ances</w>
succ essi
stra igh
siè cles</w>
s avo
refon te</w>
lou able</w>
know ing</w>
insist ons</w>
in k</w>
in hér
har c
fu ite</w>
end o
contra ires</w>
co eur</w>
acqu ire</w>
Jer usalem</w>
Celles -ci</w>
- faire</w>
évo quées</w>
électri que</w>
un is</w>
trans fé
suppl ement</w>
reti ré</w>
pass és</w>
oblig é</w>
mon ta
exer cent</w>
distor tion</w>
di am
at a</w>
apparti ennent</w>
ac tionnaires</w>
S es</w>
Lukashen ko</w>
Jack son</w>
I z
Fur ther</w>
C omb
trans action</w>
threat ens</w>
teach ing</w>
si lent</w>
révis ée</w>
ro te</w>
porno graphy</w>
la issant</w>
intensi fy</w>
industri alisés</w>
expos ées</w>
et ers</w>
dé non
ar isme</w>
accep tées</w>
ac compagne</w>
How itt</w>
w rote</w>
urba in</w>
telep hone</w>
t lement</w>
public -
pou vions</w>
pl as
pilo te</w>
partag é</w>
ou ts</w>
on er</w>
mort alité</w>
it oring</w>
expos ure</w>
exemp t</w>
Jour n
Every thing</w>
D ü
well- known</w>
we i
voy ages</w>
ti re</w>
ther to</w>
techn ically</w>
so far</w>
slog an</w>
pré adhésion</w>
po table</w>
ora trice</w>
o k</w>
larg es</w>
is -ci</w>
expres sions</w>
entrepren eurship</w>
ener gy-
dé çu</w>
cy cles</w>
b ans</w>
aver tissement</w>
afford able</w>
affec tation</w>
Sci enti
Sav ary</w>
Pir ker</w>
J eu
For ce</w>
tubercu lose</w>
ster ity</w>
sol li
si a</w>
s plen
résid ents</w>
re location</w>
re course</w>
re constitution</w>
moun tain</w>
intol érable</w>
in comprehensible</w>
hou ses</w>
eth ics</w>
end et
effectu ée</w>
decomm ission
d are</w>
S pring</w>
P in
Israel is</w>
Environ mental</w>
Cyprio t</w>
repos ant</w>
quasi -
poursuiv ra</w>
pe au</w>
olo gies</w>
mè nent</w>
fossi les</w>
détermin és</w>
dis simul
aust érité</w>
attemp ted</w>
SP G</w>
M anu
Fin ance</w>
Cambo dge</w>
wai ver</w>
ven ture</w>
ta u
suspec t</w>
re turning</w>
prom ising</w>
privil ège</w>
n au
main tient</w>
législ ateur</w>
inqui étant</w>
g enti
fra me
fl exic
eu ri
ent- elles</w>
engag ent</w>
embar rass
dé tec
dec reas
cro ss</w>
correspon dant</w>
constitu ents</w>
b elle</w>
au lt</w>
allou er</w>
accord ent</w>
Sch ro
S un
Na polit
J ér
An ti
wel coming</w>
transl ated</w>
ther ap
signific atives</w>
secret ariat</w>
pré déc
prédéc ess
prom ouv
n app
moment- là</w>
lég èrement</w>
h re
glob alised</w>
ge red</w>
ear th</w>
dis agreement</w>
ci r</w>
ar chi
Philipp ines</w>
O ff
C lau
Az nar</w>
tour ist</w>
sacri fice</w>
ré admission</w>
produ ces</w>
pl ing</w>
logi ciels</w>
li ft</w>
id akis</w>
hu mi
excessi vely</w>
du ration</w>
cinqu ante</w>
chan ge
centu ries</w>
ba isser</w>
aj out</w>
S ous</w>
Napolit ano</w>
Gi b
Coll ins</w>
Cari b
Ber g</w>
trans posed</w>
subs istent</w>
st an
ru rale</w>
renta bilité</w>
relev é</w>
re vue</w>
préven tives</w>
neighb our</w>
cru el</w>
cre ativity</w>
atten tifs</w>
at em
ass isting</w>
ag o
T rès</w>
S and
N ouv
1 -
web site</w>
ul time</w>
super fl
s ine</w>
ru led</w>
re z-vous</w>
par itaire</w>
judg ed</w>
handicap s</w>
franç aises</w>
excus er</w>
emer gence</w>
dras tic</w>
deb ts</w>
ci a</w>
cau tious</w>
b elles</w>
atz idakis</w>
Mon itoring</w>
H atzidakis</w>
H CR</w>
Gu ar
G SP</w>
Alex ander</w>
travaill iste</w>
stric ts</w>
sou ple</w>
renforc ent</w>
relev ance</w>
re sume</w>
pu issant</w>
presta taires</w>
pres sures</w>
pharmaceu tiques</w>
persécu tion</w>
multi ple</w>
ingredi ents</w>
inform elle</w>
incit ations</w>
excep tionnel</w>
examin era</w>
entra ve</w>
en ra
bot tom</w>
accep tent</w>
J en
Carib bean</w>
ég aux</w>
w ast
visi bility</w>
tis me</w>
restructu rations</w>
reco ver</w>
re consider</w>
plat e-forme</w>
moder ate</w>
import er</w>
el la</w>
dis appear</w>
demand erais</w>
d ors</w>
comp an
Instru ment</w>
Ch air</w>
Bro ek</w>
éclair c
sign ataires</w>
sh ed</w>
serv i</w>
recru itment</w>
primordi ale</w>
man œuvre</w>
lik ewise</w>
interven us</w>
in tr
fi ants</w>
dis regard</w>
devo irs</w>
cé der</w>
criti qué</w>
cre dits</w>
blo quer</w>
au sterity</w>
Ou est</w>
K h
Gu atem
C5-0 3
Belar u
ti béta
sub mitting</w>
rép été</w>
re placing</w>
prépar atoires</w>
proc essed</w>
mat ri
leg ality</w>
insul aires</w>
gi bilité</w>
fourn issant</w>
data base</w>
commun ist</w>
apparten ance</w>
ambiti euses</w>
Hu gh
D er
B ou
w ley</w>
t eté</w>
règ lem
rest oring</w>
rectific atif</w>
menac ée</w>
ent rera</w>
ecu tive</w>
dissid ents</w>
cor por
compu ter</w>
b els</w>
assum ed</w>
ari os</w>
K lau
somm ets</w>
ress enti
rejet ons</w>
refus ent</w>
push ing</w>
on ds</w>
mea su
ins k</w>
ignor ance</w>
effec tif</w>
dynam isme</w>
compan ying</w>
ce ase</w>
benef ited</w>
ad o</w>
t endant</w>
retar der</w>
par courir</w>
p è
mea sured</w>
indu l
in ability</w>
for cé</w>
eng ine
e il</w>
cer titudes</w>
bu ying</w>
autor isées</w>
OC M</w>
An der
tro ïka</w>
te ams</w>
t onne</w>
sug gé
souhaiter ions</w>
seu ils</w>
scén ario</w>
savo ir
ré sident</w>
param ètres</w>
in effective</w>
enn ant</w>
den ly</w>
d denly</w>
ax es</w>
as simil
ani ans</w>
allow ances</w>
affec té</w>
aff lu
accél ération</w>
P acte</w>
B5-0 2
ég u
uni r</w>
transplan tation</w>
suppli ed</w>
sta m
récipro que</w>
pro met
parad is</w>
num éro</w>
menac ées</w>
lin king</w>
li ved</w>
innov antes</w>
in correct</w>
hre b</w>
g el</w>
g anda</w>
fair ness</w>
entrepren euri
en cad
dé lit</w>
defin ite</w>
cro ient</w>
counter -
compl ying</w>
arrest ation</w>
acknowledg es</w>
T V</w>
Ni chol
Hugh es</w>
viend ront</w>
scour ge</w>
s mar
s chi
mél an
juri diction</w>
in jec
hau ts</w>
feel ings</w>
dispos ant</w>
de emed</w>
att eler</w>
arti ficial</w>
altern atifs</w>
air space</w>
M insk</w>
2 -
10 8</w>
théori e</w>
sû rement</w>
separ ately</w>
sen ior</w>
pho to
op ho
off ence</w>
lég aux</w>
exempl ary</w>
ex tin
déplac ement</w>
bene fiting</w>
avi er</w>
avant- projet</w>
Pacifi c</w>
Or dre</w>
O t
Mag hreb</w>
M ai
Le ague</w>
L anc
En g
écras ante</w>
wan ting</w>
up dated</w>
under stands</w>
rég l
rig our</w>
modi fiées</w>
législ ateurs</w>
j ö
hypoth èse</w>
hr k
honnê teté</w>
h ora
duc t</w>
couver te</w>
bal tes</w>
Viê t</w>
Mar in
F ava</w>
Dü hrk
Del eg
uni formes</w>
servi ra</w>
sembl erait</w>
se rez</w>
se as
prob ation</w>
privile ge</w>
par faite</w>
pa ient</w>
news paper</w>
détru it</w>
dra matiques</w>
contractu al</w>
c abotage</w>
anticipa ted</w>
ajust ements</w>
Kall as</w>
stu pi
scre ening</w>
probl ématiques</w>
ordin aire</w>
of -
observ é</w>
mul titude</w>
incorpor ating</w>
espagno ls</w>
délib érations</w>
dic ations</w>
conven i
com prise</w>
collec tif</w>
chan ce
adop tons</w>
ad visory</w>
V ir
T cher
Lam assou
Cher nobyl</w>
C5-0 2
univers ité</w>
total it
speed y</w>
spati ale</w>
s ain</w>
prof itent</w>
mon tre
mainta ins</w>
equip ped</w>
déroul ement</w>
confron ted</w>
comm and
ch u
arrê tés</w>
SO L
GAT T</w>
4 50</w>
éco systèmes</w>
wo od</w>
savoir -faire</w>
restaur ation</w>
peut- on</w>
parl ant</w>
n ur
liv rer</w>
ir ons</w>
indivi du</w>
géné tique</w>
forc ément</w>
dév asta
déf avo
cou r</w>
ajou té</w>
Somali a</w>
[...]
